{
  "0": "<unk>",
  "1": "<|nospeech|>",
  "2": "<pad>",
  "3": "<|endoftext|>",
  "4": "<|startoftranscript|>",
  "5": "<|pnc|>",
  "6": "<|nopnc|>",
  "7": "<|startofcontext|>",
  "8": "<|itn|>",
  "9": "<|noitn|>",
  "10": "<|timestamp|>",
  "11": "<|notimestamp|>",
  "12": "<|diarize|>",
  "13": "<|nodiarize|>",
  "14": "<|spkchange|>",
  "15": "<|audioseparator|>",
  "16": "<|emo:undefined|>",
  "17": "<|emo:neutral|>",
  "18": "<|emo:happy|>",
  "19": "<|emo:sad|>",
  "20": "<|emo:angry|>",
  "21": "<|unklang|>",
  "22": "<|aa|>",
  "23": "<|ab|>",
  "24": "<|af|>",
  "25": "<|ak|>",
  "26": "<|sq|>",
  "27": "<|am|>",
  "28": "<|ar|>",
  "29": "<|an|>",
  "30": "<|hy|>",
  "31": "<|as|>",
  "32": "<|av|>",
  "33": "<|ae|>",
  "34": "<|ay|>",
  "35": "<|az|>",
  "36": "<|bm|>",
  "37": "<|ba|>",
  "38": "<|eu|>",
  "39": "<|be|>",
  "40": "<|bn|>",
  "41": "<|bi|>",
  "42": "<|bs|>",
  "43": "<|br|>",
  "44": "<|bg|>",
  "45": "<|my|>",
  "46": "<|ca|>",
  "47": "<|ch|>",
  "48": "<|ce|>",
  "49": "<|ny|>",
  "50": "<|zh|>",
  "51": "<|cu|>",
  "52": "<|cv|>",
  "53": "<|kw|>",
  "54": "<|co|>",
  "55": "<|cr|>",
  "56": "<|hr|>",
  "57": "<|cs|>",
  "58": "<|da|>",
  "59": "<|dv|>",
  "60": "<|nl|>",
  "61": "<|dz|>",
  "62": "<|en|>",
  "63": "<|eo|>",
  "64": "<|et|>",
  "65": "<|ee|>",
  "66": "<|fo|>",
  "67": "<|fj|>",
  "68": "<|fi|>",
  "69": "<|fr|>",
  "70": "<|fy|>",
  "71": "<|ff|>",
  "72": "<|gd|>",
  "73": "<|gl|>",
  "74": "<|lg|>",
  "75": "<|ka|>",
  "76": "<|de|>",
  "77": "<|el|>",
  "78": "<|kl|>",
  "79": "<|gn|>",
  "80": "<|gu|>",
  "81": "<|ht|>",
  "82": "<|ha|>",
  "83": "<|he|>",
  "84": "<|hz|>",
  "85": "<|hi|>",
  "86": "<|ho|>",
  "87": "<|hu|>",
  "88": "<|is|>",
  "89": "<|io|>",
  "90": "<|ig|>",
  "91": "<|id|>",
  "92": "<|ia|>",
  "93": "<|ie|>",
  "94": "<|iu|>",
  "95": "<|ik|>",
  "96": "<|ga|>",
  "97": "<|it|>",
  "98": "<|ja|>",
  "99": "<|jv|>",
  "100": "<|kn|>",
  "101": "<|kr|>",
  "102": "<|ks|>",
  "103": "<|kk|>",
  "104": "<|km|>",
  "105": "<|ki|>",
  "106": "<|rw|>",
  "107": "<|ky|>",
  "108": "<|kv|>",
  "109": "<|kg|>",
  "110": "<|ko|>",
  "111": "<|kj|>",
  "112": "<|ku|>",
  "113": "<|lo|>",
  "114": "<|la|>",
  "115": "<|lv|>",
  "116": "<|li|>",
  "117": "<|ln|>",
  "118": "<|lt|>",
  "119": "<|lu|>",
  "120": "<|lb|>",
  "121": "<|mk|>",
  "122": "<|mg|>",
  "123": "<|ms|>",
  "124": "<|ml|>",
  "125": "<|mt|>",
  "126": "<|gv|>",
  "127": "<|mi|>",
  "128": "<|mr|>",
  "129": "<|mh|>",
  "130": "<|mn|>",
  "131": "<|na|>",
  "132": "<|nv|>",
  "133": "<|nd|>",
  "134": "<|nr|>",
  "135": "<|ng|>",
  "136": "<|ne|>",
  "137": "<|no|>",
  "138": "<|nb|>",
  "139": "<|nn|>",
  "140": "<|oc|>",
  "141": "<|oj|>",
  "142": "<|or|>",
  "143": "<|om|>",
  "144": "<|os|>",
  "145": "<|pi|>",
  "146": "<|ps|>",
  "147": "<|fa|>",
  "148": "<|pl|>",
  "149": "<|pt|>",
  "150": "<|pa|>",
  "151": "<|qu|>",
  "152": "<|ro|>",
  "153": "<|rm|>",
  "154": "<|rn|>",
  "155": "<|ru|>",
  "156": "<|se|>",
  "157": "<|sm|>",
  "158": "<|sg|>",
  "159": "<|sa|>",
  "160": "<|sc|>",
  "161": "<|sr|>",
  "162": "<|sn|>",
  "163": "<|sd|>",
  "164": "<|si|>",
  "165": "<|sk|>",
  "166": "<|sl|>",
  "167": "<|so|>",
  "168": "<|st|>",
  "169": "<|es|>",
  "170": "<|su|>",
  "171": "<|sw|>",
  "172": "<|ss|>",
  "173": "<|sv|>",
  "174": "<|tl|>",
  "175": "<|ty|>",
  "176": "<|tg|>",
  "177": "<|ta|>",
  "178": "<|tt|>",
  "179": "<|te|>",
  "180": "<|th|>",
  "181": "<|bo|>",
  "182": "<|ti|>",
  "183": "<|to|>",
  "184": "<|ts|>",
  "185": "<|tn|>",
  "186": "<|tr|>",
  "187": "<|tk|>",
  "188": "<|tw|>",
  "189": "<|ug|>",
  "190": "<|uk|>",
  "191": "<|ur|>",
  "192": "<|uz|>",
  "193": "<|ve|>",
  "194": "<|vi|>",
  "195": "<|vo|>",
  "196": "<|wa|>",
  "197": "<|cy|>",
  "198": "<|wo|>",
  "199": "<|xh|>",
  "200": "<|ii|>",
  "201": "<|yi|>",
  "202": "<|yo|>",
  "203": "<|za|>",
  "204": "<|zu|>",
  "205": "<|spk0|>",
  "206": "<|spk1|>",
  "207": "<|spk2|>",
  "208": "<|spk3|>",
  "209": "<|spk4|>",
  "210": "<|spk5|>",
  "211": "<|spk6|>",
  "212": "<|spk7|>",
  "213": "<|spk8|>",
  "214": "<|spk9|>",
  "215": "<|spk10|>",
  "216": "<|spk11|>",
  "217": "<|spk12|>",
  "218": "<|spk13|>",
  "219": "<|spk14|>",
  "220": "<|spk15|>",
  "221": "<|spltoken0|>",
  "222": "<|spltoken1|>",
  "223": "<|spltoken2|>",
  "224": "<|spltoken3|>",
  "225": "<|spltoken4|>",
  "226": "<|spltoken5|>",
  "227": "<|spltoken6|>",
  "228": "<|spltoken7|>",
  "229": "<|spltoken8|>",
  "230": "<|spltoken9|>",
  "231": "<|spltoken10|>",
  "232": "<|spltoken11|>",
  "233": "<|spltoken12|>",
  "234": "<|spltoken13|>",
  "235": "<|spltoken14|>",
  "236": "<|spltoken15|>",
  "237": "<|spltoken16|>",
  "238": "<|spltoken17|>",
  "239": "<|spltoken18|>",
  "240": "<|spltoken19|>",
  "241": "<|spltoken20|>",
  "242": "<|spltoken21|>",
  "243": "<|spltoken22|>",
  "244": "<|spltoken23|>",
  "245": "<|spltoken24|>",
  "246": "<|spltoken25|>",
  "247": "<|spltoken26|>",
  "248": "<|spltoken27|>",
  "249": "<|spltoken28|>",
  "250": "<|spltoken29|>",
  "251": "<|spltoken30|>",
  "252": "<|spltoken31|>",
  "253": "<|spltoken32|>",
  "254": "<|spltoken33|>",
  "255": "<0x00>",
  "256": "<0x01>",
  "257": "<0x02>",
  "258": "<0x03>",
  "259": "<0x04>",
  "260": "<0x05>",
  "261": "<0x06>",
  "262": "<0x07>",
  "263": "<0x08>",
  "264": "<0x09>",
  "265": "<0x0A>",
  "266": "<0x0B>",
  "267": "<0x0C>",
  "268": "<0x0D>",
  "269": "<0x0E>",
  "270": "<0x0F>",
  "271": "<0x10>",
  "272": "<0x11>",
  "273": "<0x12>",
  "274": "<0x13>",
  "275": "<0x14>",
  "276": "<0x15>",
  "277": "<0x16>",
  "278": "<0x17>",
  "279": "<0x18>",
  "280": "<0x19>",
  "281": "<0x1A>",
  "282": "<0x1B>",
  "283": "<0x1C>",
  "284": "<0x1D>",
  "285": "<0x1E>",
  "286": "<0x1F>",
  "287": "<0x20>",
  "288": "<0x21>",
  "289": "<0x22>",
  "290": "<0x23>",
  "291": "<0x24>",
  "292": "<0x25>",
  "293": "<0x26>",
  "294": "<0x27>",
  "295": "<0x28>",
  "296": "<0x29>",
  "297": "<0x2A>",
  "298": "<0x2B>",
  "299": "<0x2C>",
  "300": "<0x2D>",
  "301": "<0x2E>",
  "302": "<0x2F>",
  "303": "<0x30>",
  "304": "<0x31>",
  "305": "<0x32>",
  "306": "<0x33>",
  "307": "<0x34>",
  "308": "<0x35>",
  "309": "<0x36>",
  "310": "<0x37>",
  "311": "<0x38>",
  "312": "<0x39>",
  "313": "<0x3A>",
  "314": "<0x3B>",
  "315": "<0x3C>",
  "316": "<0x3D>",
  "317": "<0x3E>",
  "318": "<0x3F>",
  "319": "<0x40>",
  "320": "<0x41>",
  "321": "<0x42>",
  "322": "<0x43>",
  "323": "<0x44>",
  "324": "<0x45>",
  "325": "<0x46>",
  "326": "<0x47>",
  "327": "<0x48>",
  "328": "<0x49>",
  "329": "<0x4A>",
  "330": "<0x4B>",
  "331": "<0x4C>",
  "332": "<0x4D>",
  "333": "<0x4E>",
  "334": "<0x4F>",
  "335": "<0x50>",
  "336": "<0x51>",
  "337": "<0x52>",
  "338": "<0x53>",
  "339": "<0x54>",
  "340": "<0x55>",
  "341": "<0x56>",
  "342": "<0x57>",
  "343": "<0x58>",
  "344": "<0x59>",
  "345": "<0x5A>",
  "346": "<0x5B>",
  "347": "<0x5C>",
  "348": "<0x5D>",
  "349": "<0x5E>",
  "350": "<0x5F>",
  "351": "<0x60>",
  "352": "<0x61>",
  "353": "<0x62>",
  "354": "<0x63>",
  "355": "<0x64>",
  "356": "<0x65>",
  "357": "<0x66>",
  "358": "<0x67>",
  "359": "<0x68>",
  "360": "<0x69>",
  "361": "<0x6A>",
  "362": "<0x6B>",
  "363": "<0x6C>",
  "364": "<0x6D>",
  "365": "<0x6E>",
  "366": "<0x6F>",
  "367": "<0x70>",
  "368": "<0x71>",
  "369": "<0x72>",
  "370": "<0x73>",
  "371": "<0x74>",
  "372": "<0x75>",
  "373": "<0x76>",
  "374": "<0x77>",
  "375": "<0x78>",
  "376": "<0x79>",
  "377": "<0x7A>",
  "378": "<0x7B>",
  "379": "<0x7C>",
  "380": "<0x7D>",
  "381": "<0x7E>",
  "382": "<0x7F>",
  "383": "<0x80>",
  "384": "<0x81>",
  "385": "<0x82>",
  "386": "<0x83>",
  "387": "<0x84>",
  "388": "<0x85>",
  "389": "<0x86>",
  "390": "<0x87>",
  "391": "<0x88>",
  "392": "<0x89>",
  "393": "<0x8A>",
  "394": "<0x8B>",
  "395": "<0x8C>",
  "396": "<0x8D>",
  "397": "<0x8E>",
  "398": "<0x8F>",
  "399": "<0x90>",
  "400": "<0x91>",
  "401": "<0x92>",
  "402": "<0x93>",
  "403": "<0x94>",
  "404": "<0x95>",
  "405": "<0x96>",
  "406": "<0x97>",
  "407": "<0x98>",
  "408": "<0x99>",
  "409": "<0x9A>",
  "410": "<0x9B>",
  "411": "<0x9C>",
  "412": "<0x9D>",
  "413": "<0x9E>",
  "414": "<0x9F>",
  "415": "<0xA0>",
  "416": "<0xA1>",
  "417": "<0xA2>",
  "418": "<0xA3>",
  "419": "<0xA4>",
  "420": "<0xA5>",
  "421": "<0xA6>",
  "422": "<0xA7>",
  "423": "<0xA8>",
  "424": "<0xA9>",
  "425": "<0xAA>",
  "426": "<0xAB>",
  "427": "<0xAC>",
  "428": "<0xAD>",
  "429": "<0xAE>",
  "430": "<0xAF>",
  "431": "<0xB0>",
  "432": "<0xB1>",
  "433": "<0xB2>",
  "434": "<0xB3>",
  "435": "<0xB4>",
  "436": "<0xB5>",
  "437": "<0xB6>",
  "438": "<0xB7>",
  "439": "<0xB8>",
  "440": "<0xB9>",
  "441": "<0xBA>",
  "442": "<0xBB>",
  "443": "<0xBC>",
  "444": "<0xBD>",
  "445": "<0xBE>",
  "446": "<0xBF>",
  "447": "<0xC0>",
  "448": "<0xC1>",
  "449": "<0xC2>",
  "450": "<0xC3>",
  "451": "<0xC4>",
  "452": "<0xC5>",
  "453": "<0xC6>",
  "454": "<0xC7>",
  "455": "<0xC8>",
  "456": "<0xC9>",
  "457": "<0xCA>",
  "458": "<0xCB>",
  "459": "<0xCC>",
  "460": "<0xCD>",
  "461": "<0xCE>",
  "462": "<0xCF>",
  "463": "<0xD0>",
  "464": "<0xD1>",
  "465": "<0xD2>",
  "466": "<0xD3>",
  "467": "<0xD4>",
  "468": "<0xD5>",
  "469": "<0xD6>",
  "470": "<0xD7>",
  "471": "<0xD8>",
  "472": "<0xD9>",
  "473": "<0xDA>",
  "474": "<0xDB>",
  "475": "<0xDC>",
  "476": "<0xDD>",
  "477": "<0xDE>",
  "478": "<0xDF>",
  "479": "<0xE0>",
  "480": "<0xE1>",
  "481": "<0xE2>",
  "482": "<0xE3>",
  "483": "<0xE4>",
  "484": "<0xE5>",
  "485": "<0xE6>",
  "486": "<0xE7>",
  "487": "<0xE8>",
  "488": "<0xE9>",
  "489": "<0xEA>",
  "490": "<0xEB>",
  "491": "<0xEC>",
  "492": "<0xED>",
  "493": "<0xEE>",
  "494": "<0xEF>",
  "495": "<0xF0>",
  "496": "<0xF1>",
  "497": "<0xF2>",
  "498": "<0xF3>",
  "499": "<0xF4>",
  "500": "<0xF5>",
  "501": "<0xF6>",
  "502": "<0xF7>",
  "503": "<0xF8>",
  "504": "<0xF9>",
  "505": "<0xFA>",
  "506": "<0xFB>",
  "507": "<0xFC>",
  "508": "<0xFD>",
  "509": "<0xFE>",
  "510": "<0xFF>",
  "511": "▁t",
  "512": "▁a",
  "513": "er",
  "514": "en",
  "515": "in",
  "516": "▁th",
  "517": "▁s",
  "518": "▁d",
  "519": "on",
  "520": "es",
  "521": "▁w",
  "522": "▁c",
  "523": "▁p",
  "524": "at",
  "525": "re",
  "526": "an",
  "527": "▁the",
  "528": "▁o",
  "529": "▁m",
  "530": "is",
  "531": "it",
  "532": "▁h",
  "533": "ou",
  "534": "▁l",
  "535": "▁b",
  "536": "or",
  "537": "ar",
  "538": "▁f",
  "539": "▁n",
  "540": "nd",
  "541": "as",
  "542": "al",
  "543": "ch",
  "544": "▁e",
  "545": "ing",
  "546": "▁to",
  "547": "ed",
  "548": "▁in",
  "549": "▁g",
  "550": "om",
  "551": "ent",
  "552": "el",
  "553": "os",
  "554": "▁of",
  "555": "qu",
  "556": "▁and",
  "557": "▁u",
  "558": "le",
  "559": "▁v",
  "560": "▁de",
  "561": "ion",
  "562": "▁y",
  "563": "▁I",
  "564": "ro",
  "565": "et",
  "566": "ic",
  "567": "il",
  "568": "▁qu",
  "569": "am",
  "570": "ut",
  "571": "ad",
  "572": "us",
  "573": "▁you",
  "574": "▁that",
  "575": "est",
  "576": "ve",
  "577": "im",
  "578": "ie",
  "579": "id",
  "580": "▁is",
  "581": "ow",
  "582": "ot",
  "583": "▁A",
  "584": "▁re",
  "585": "ra",
  "586": "▁be",
  "587": "ig",
  "588": "▁S",
  "589": "ol",
  "590": "▁wh",
  "591": "ur",
  "592": "ere",
  "593": "▁it",
  "594": "▁on",
  "595": "ir",
  "596": "▁al",
  "597": "▁r",
  "598": "▁T",
  "599": "em",
  "600": "▁k",
  "601": "ct",
  "602": "ly",
  "603": "ay",
  "604": "st",
  "605": "▁ha",
  "606": "▁j",
  "607": "▁E",
  "608": "▁st",
  "609": "▁con",
  "610": "▁we",
  "611": "▁i",
  "612": "▁se",
  "613": "he",
  "614": "▁for",
  "615": "▁que",
  "616": "ce",
  "617": "un",
  "618": "▁com",
  "619": "ver",
  "620": "▁un",
  "621": "ant",
  "622": "▁an",
  "623": "ich",
  "624": "▁la",
  "625": "ci",
  "626": "ter",
  "627": "▁C",
  "628": "▁en",
  "629": "ess",
  "630": "▁as",
  "631": "▁di",
  "632": "▁P",
  "633": "▁do",
  "634": "od",
  "635": "▁M",
  "636": "ke",
  "637": "ul",
  "638": "and",
  "639": "▁pro",
  "640": "▁he",
  "641": "▁D",
  "642": "ith",
  "643": "▁τ",
  "644": "ri",
  "645": "ation",
  "646": "▁was",
  "647": "▁W",
  "648": "▁B",
  "649": "▁z",
  "650": "▁so",
  "651": "▁this",
  "652": "te",
  "653": "▁le",
  "654": "▁par",
  "655": "▁with",
  "656": "pe",
  "657": "ag",
  "658": "th",
  "659": "▁me",
  "660": "ld",
  "661": "ell",
  "662": "▁li",
  "663": "▁go",
  "664": "ers",
  "665": "ht",
  "666": "▁have",
  "667": "▁su",
  "668": "▁ch",
  "669": "▁ne",
  "670": "end",
  "671": "ill",
  "672": "ab",
  "673": "▁pr",
  "674": "ist",
  "675": "ac",
  "676": "▁not",
  "677": "▁at",
  "678": "ust",
  "679": "um",
  "680": "▁ab",
  "681": "▁π",
  "682": "▁are",
  "683": "ort",
  "684": "pp",
  "685": "se",
  "686": "ου",
  "687": "ia",
  "688": "▁tr",
  "689": "▁ma",
  "690": "▁N",
  "691": "▁L",
  "692": "▁or",
  "693": "▁O",
  "694": "▁H",
  "695": "▁ex",
  "696": "op",
  "697": "▁no",
  "698": "ore",
  "699": "▁all",
  "700": "to",
  "701": "ight",
  "702": "ould",
  "703": "ally",
  "704": "▁κ",
  "705": "▁est",
  "706": "ão",
  "707": "αι",
  "708": "ind",
  "709": "our",
  "710": "▁G",
  "711": "iv",
  "712": "ff",
  "713": "▁fr",
  "714": "▁And",
  "715": "▁α",
  "716": "▁lo",
  "717": "ment",
  "718": "ate",
  "719": "out",
  "720": "▁can",
  "721": "▁Th",
  "722": "▁So",
  "723": "▁ε",
  "724": "▁σ",
  "725": "▁per",
  "726": "▁they",
  "727": "▁es",
  "728": "▁but",
  "729": "ous",
  "730": "▁U",
  "731": "▁sh",
  "732": "▁ver",
  "733": "ta",
  "734": "▁kn",
  "735": "▁fa",
  "736": "▁F",
  "737": "▁ا",
  "738": "ard",
  "739": "▁1",
  "740": "▁im",
  "741": "ome",
  "742": "ge",
  "743": "▁R",
  "744": "ok",
  "745": "so",
  "746": "▁like",
  "747": "με",
  "748": "ud",
  "749": "▁The",
  "750": "la",
  "751": "ine",
  "752": "▁there",
  "753": "▁know",
  "754": "▁Y",
  "755": "▁by",
  "756": "li",
  "757": "▁die",
  "758": "▁wor",
  "759": "▁des",
  "760": "να",
  "761": "▁what",
  "762": "ng",
  "763": "ca",
  "764": "all",
  "765": "uch",
  "766": "iz",
  "767": "▁el",
  "768": "ak",
  "769": "▁from",
  "770": "ive",
  "771": "ει",
  "772": "▁J",
  "773": "uro",
  "774": "▁und",
  "775": "ity",
  "776": "ans",
  "777": "▁2",
  "778": "▁just",
  "779": "ost",
  "780": "▁one",
  "781": "are",
  "782": "ber",
  "783": "▁man",
  "784": "▁my",
  "785": "ier",
  "786": "▁pe",
  "787": "▁sa",
  "788": "ass",
  "789": "ese",
  "790": "▁te",
  "791": "ure",
  "792": "▁don",
  "793": "▁his",
  "794": "ne",
  "795": "ens",
  "796": "▁이",
  "797": "ente",
  "798": "▁had",
  "799": "oc",
  "800": "ast",
  "801": "ink",
  "802": "▁up",
  "803": "her",
  "804": "▁pl",
  "805": "iss",
  "806": "▁che",
  "807": "▁out",
  "808": "oug",
  "809": "ap",
  "810": "▁V",
  "811": "ien",
  "812": "▁if",
  "813": "▁da",
  "814": "▁which",
  "815": "ma",
  "816": "ide",
  "817": "▁about",
  "818": "▁그",
  "819": "ια",
  "820": "og",
  "821": "▁your",
  "822": "ies",
  "823": "ικ",
  "824": "use",
  "825": "ue",
  "826": "▁ar",
  "827": "ach",
  "828": "ij",
  "829": "▁ag",
  "830": "pr",
  "831": "▁é",
  "832": "▁will",
  "833": "ond",
  "834": "▁ال",
  "835": "▁cont",
  "836": "if",
  "837": "ose",
  "838": "ib",
  "839": "▁us",
  "840": "▁si",
  "841": "ame",
  "842": "▁ac",
  "843": "ze",
  "844": "▁K",
  "845": "per",
  "846": "▁quest",
  "847": "ong",
  "848": "▁some",
  "849": "▁del",
  "850": "▁sp",
  "851": "▁δ",
  "852": "art",
  "853": "ord",
  "854": "ven",
  "855": "▁ad",
  "856": "ions",
  "857": "ire",
  "858": "▁her",
  "859": "▁comp",
  "860": "ón",
  "861": "ione",
  "862": "ung",
  "863": "▁il",
  "864": "▁imp",
  "865": "▁think",
  "866": "▁der",
  "867": "▁part",
  "868": "ime",
  "869": "▁get",
  "870": "▁να",
  "871": "▁τη",
  "872": "▁going",
  "873": "▁pre",
  "874": "ah",
  "875": "▁would",
  "876": "ρο",
  "877": "be",
  "878": "ain",
  "879": "▁them",
  "880": "▁gr",
  "881": "io",
  "882": "cause",
  "883": "ack",
  "884": "▁It",
  "885": "▁đ",
  "886": "nt",
  "887": "μα",
  "888": "▁res",
  "889": "▁then",
  "890": "▁inter",
  "891": "▁who",
  "892": "▁à",
  "893": "▁dis",
  "894": "ll",
  "895": "ite",
  "896": "itt",
  "897": "zy",
  "898": "▁et",
  "899": "▁were",
  "900": "▁mo",
  "901": "ang",
  "902": "▁em",
  "903": "ann",
  "904": "orm",
  "905": "▁και",
  "906": "oss",
  "907": "pt",
  "908": "ound",
  "909": "▁ser",
  "910": "▁when",
  "911": "▁ge",
  "912": "ther",
  "913": "ice",
  "914": "▁co",
  "915": "τα",
  "916": "▁more",
  "917": "▁Euro",
  "918": "▁er",
  "919": "▁our",
  "920": "▁has",
  "921": "one",
  "922": "πο",
  "923": "▁We",
  "924": "que",
  "925": "icht",
  "926": "▁po",
  "927": "ank",
  "928": "ect",
  "929": "▁por",
  "930": "ado",
  "931": "ough",
  "932": "▁here",
  "933": "pl",
  "934": "▁am",
  "935": "▁very",
  "936": "▁In",
  "937": "00",
  "938": "ck",
  "939": "▁see",
  "940": "▁also",
  "941": "▁want",
  "942": "▁comm",
  "943": "▁because",
  "944": "wo",
  "945": "▁their",
  "946": "ade",
  "947": "▁thing",
  "948": "τε",
  "949": "▁para",
  "950": "▁cl",
  "951": "ru",
  "952": "▁act",
  "953": "du",
  "954": "▁ein",
  "955": "ση",
  "956": "age",
  "957": "▁fe",
  "958": "omm",
  "959": "▁ro",
  "960": "ry",
  "961": "ople",
  "962": "▁she",
  "963": "ult",
  "964": "ip",
  "965": "▁um",
  "966": "▁das",
  "967": "▁him",
  "968": "▁right",
  "969": "int",
  "970": "▁ye",
  "971": "▁been",
  "972": "▁les",
  "973": "ont",
  "974": "▁na",
  "975": "▁say",
  "976": "▁dat",
  "977": "go",
  "978": "▁ent",
  "979": "▁now",
  "980": "▁ob",
  "981": "ons",
  "982": "▁people",
  "983": "▁au",
  "984": "ica",
  "985": "che",
  "986": "ale",
  "987": "▁how",
  "988": "▁ra",
  "989": "reat",
  "990": "▁over",
  "991": "de",
  "992": "▁vo",
  "993": "▁any",
  "994": "ament",
  "995": "▁work",
  "996": "▁tra",
  "997": "ance",
  "998": "▁je",
  "999": "▁time",
  "1000": "ft",
  "1001": "▁γ",
  "1002": "ish",
  "1003": "gen",
  "1004": "▁these",
  "1005": "▁una",
  "1006": "▁look",
  "1007": "τη",
  "1008": "▁μ",
  "1009": "▁pu",
  "1010": "니다",
  "1011": "we",
  "1012": "▁You",
  "1013": "able",
  "1014": "ία",
  "1015": "▁ter",
  "1016": "▁ever",
  "1017": "hr",
  "1018": "gr",
  "1019": "bl",
  "1020": "▁το",
  "1021": "▁los",
  "1022": "▁Un",
  "1023": "cess",
  "1024": "ence",
  "1025": "▁wir",
  "1026": "▁really",
  "1027": "iel",
  "1028": "▁qui",
  "1029": "vel",
  "1030": "▁op",
  "1031": "bi",
  "1032": "ces",
  "1033": "ρα",
  "1034": "▁other",
  "1035": "ble",
  "1036": "▁into",
  "1037": "az",
  "1038": "ten",
  "1039": "▁pas",
  "1040": "▁있",
  "1041": "ep",
  "1042": "hing",
  "1043": "wn",
  "1044": "▁ist",
  "1045": "ign",
  "1046": "av",
  "1047": "au",
  "1048": "▁den",
  "1049": "ito",
  "1050": "ρι",
  "1051": "το",
  "1052": "ben",
  "1053": "▁pol",
  "1054": "ase",
  "1055": "ely",
  "1056": "ick",
  "1057": "ίν",
  "1058": "und",
  "1059": "ree",
  "1060": "▁col",
  "1061": "▁θ",
  "1062": "ção",
  "1063": "cl",
  "1064": "den",
  "1065": "lich",
  "1066": "ων",
  "1067": "ement",
  "1068": "▁tem",
  "1069": "ations",
  "1070": "ors",
  "1071": "▁Wh",
  "1072": "amos",
  "1073": "res",
  "1074": "▁much",
  "1075": "▁sch",
  "1076": "ars",
  "1077": "▁ό",
  "1078": "▁said",
  "1079": "▁cons",
  "1080": "▁need",
  "1081": "▁diff",
  "1082": "uss",
  "1083": "▁έ",
  "1084": "▁app",
  "1085": "▁But",
  "1086": "▁eu",
  "1087": "ction",
  "1088": "omet",
  "1089": "lo",
  "1090": "ato",
  "1091": "uy",
  "1092": "▁way",
  "1093": "▁reg",
  "1094": "me",
  "1095": "ando",
  "1096": "▁sol",
  "1097": "▁Ε",
  "1098": "▁inf",
  "1099": "▁du",
  "1100": "▁ta",
  "1101": "na",
  "1102": "▁did",
  "1103": "τι",
  "1104": "ied",
  "1105": "▁where",
  "1106": "▁ο",
  "1107": "ile",
  "1108": "▁20",
  "1109": "▁tod",
  "1110": "▁br",
  "1111": "▁Europe",
  "1112": "ated",
  "1113": "▁could",
  "1114": "▁uh",
  "1115": "▁het",
  "1116": "ada",
  "1117": "elf",
  "1118": "▁è",
  "1119": "▁ph",
  "1120": "▁van",
  "1121": "own",
  "1122": "▁son",
  "1123": "ción",
  "1124": "▁every",
  "1125": "▁fin",
  "1126": "der",
  "1127": "▁fir",
  "1128": "ary",
  "1129": "▁non",
  "1130": "▁cou",
  "1131": "amo",
  "1132": "way",
  "1133": "▁import",
  "1134": "alk",
  "1135": "▁bo",
  "1136": "▁bet",
  "1137": "▁ich",
  "1138": "▁و",
  "1139": "ical",
  "1140": "ian",
  "1141": "▁av",
  "1142": "▁하",
  "1143": "ür",
  "1144": "▁Al",
  "1145": "ple",
  "1146": "▁pres",
  "1147": "▁well",
  "1148": "▁rec",
  "1149": "υτ",
  "1150": "▁St",
  "1151": "ug",
  "1152": "▁two",
  "1153": "ually",
  "1154": "▁come",
  "1155": "ουμε",
  "1156": "▁pers",
  "1157": "▁mar",
  "1158": "▁spe",
  "1159": "▁back",
  "1160": "ual",
  "1161": "▁off",
  "1162": "za",
  "1163": "cia",
  "1164": "▁got",
  "1165": "ora",
  "1166": "ici",
  "1167": "▁min",
  "1168": "▁για",
  "1169": "▁sur",
  "1170": "▁good",
  "1171": "ater",
  "1172": "▁met",
  "1173": "▁af",
  "1174": "▁somet",
  "1175": "ition",
  "1176": "ise",
  "1177": "ante",
  "1178": "▁3",
  "1179": "▁En",
  "1180": "▁sc",
  "1181": "ai",
  "1182": "▁cr",
  "1183": "chen",
  "1184": "▁م",
  "1185": "▁first",
  "1186": "▁those",
  "1187": "ittle",
  "1188": "▁again",
  "1189": "..",
  "1190": "▁pour",
  "1191": "kt",
  "1192": "▁may",
  "1193": "amente",
  "1194": "▁let",
  "1195": "▁auch",
  "1196": "▁ho",
  "1197": "zi",
  "1198": "▁That",
  "1199": "act",
  "1200": "▁make",
  "1201": "▁não",
  "1202": "▁little",
  "1203": "ari",
  "1204": "▁rel",
  "1205": "▁Q",
  "1206": "▁dire",
  "1207": "▁dem",
  "1208": "▁kind",
  "1209": "▁str",
  "1210": "▁την",
  "1211": "▁gen",
  "1212": "νο",
  "1213": "ern",
  "1214": "λο",
  "1215": "τικ",
  "1216": "▁zu",
  "1217": "▁dec",
  "1218": "mo",
  "1219": "▁should",
  "1220": "▁car",
  "1221": "tain",
  "1222": "▁things",
  "1223": "▁με",
  "1224": "▁아",
  "1225": "▁las",
  "1226": "▁συ",
  "1227": "ents",
  "1228": "▁nicht",
  "1229": "no",
  "1230": "▁than",
  "1231": "▁ele",
  "1232": "▁This",
  "1233": "fe",
  "1234": "▁only",
  "1235": "mer",
  "1236": "▁prop",
  "1237": "ça",
  "1238": "és",
  "1239": "▁thr",
  "1240": "▁bl",
  "1241": "kay",
  "1242": "▁Par",
  "1243": "bre",
  "1244": "▁pa",
  "1245": "▁under",
  "1246": "ild",
  "1247": "▁He",
  "1248": "▁een",
  "1249": "▁ke",
  "1250": "▁its",
  "1251": "▁pod",
  "1252": "vers",
  "1253": "πό",
  "1254": "▁even",
  "1255": "▁Z",
  "1256": "ving",
  "1257": "cial",
  "1258": "▁Se",
  "1259": "▁sy",
  "1260": "xt",
  "1261": "▁dell",
  "1262": "ful",
  "1263": "fore",
  "1264": "▁αυτ",
  "1265": "▁inst",
  "1266": "▁ap",
  "1267": "▁differ",
  "1268": "ory",
  "1269": "▁lot",
  "1270": "です",
  "1271": "ais",
  "1272": "▁ten",
  "1273": "▁ind",
  "1274": "▁어",
  "1275": "co",
  "1276": "▁down",
  "1277": "▁through",
  "1278": "▁new",
  "1279": "ía",
  "1280": "vo",
  "1281": "ved",
  "1282": "▁tak",
  "1283": "ha",
  "1284": "br",
  "1285": "ίναι",
  "1286": "get",
  "1287": "▁bel",
  "1288": "▁talk",
  "1289": "▁something",
  "1290": "▁cu",
  "1291": "fer",
  "1292": "▁bu",
  "1293": "▁inv",
  "1294": "▁poss",
  "1295": "▁ess",
  "1296": "oll",
  "1297": "▁κα",
  "1298": "▁aqu",
  "1299": "▁sec",
  "1300": "▁ce",
  "1301": "ced",
  "1302": "red",
  "1303": "▁mais",
  "1304": "gan",
  "1305": "▁une",
  "1306": "że",
  "1307": "pa",
  "1308": "cy",
  "1309": "▁ty",
  "1310": "▁uma",
  "1311": "▁pra",
  "1312": "って",
  "1313": "▁day",
  "1314": "ολ",
  "1315": "ati",
  "1316": "▁πρ",
  "1317": "▁De",
  "1318": "▁ass",
  "1319": "▁του",
  "1320": "▁hel",
  "1321": "▁os",
  "1322": "nh",
  "1323": "▁mod",
  "1324": "▁att",
  "1325": "pect",
  "1326": "ject",
  "1327": "igh",
  "1328": "▁pos",
  "1329": "les",
  "1330": "▁take",
  "1331": "▁cer",
  "1332": "ning",
  "1333": "▁tam",
  "1334": "▁use",
  "1335": "▁προ",
  "1336": "ident",
  "1337": "ial",
  "1338": "▁acc",
  "1339": "▁int",
  "1340": "ho",
  "1341": "▁trans",
  "1342": "emos",
  "1343": "ido",
  "1344": "itu",
  "1345": "▁ve",
  "1346": "ento",
  "1347": "▁call",
  "1348": "▁euro",
  "1349": "▁actually",
  "1350": "je",
  "1351": "▁vous",
  "1352": "▁great",
  "1353": "εί",
  "1354": "▁most",
  "1355": "ού",
  "1356": "tre",
  "1357": "other",
  "1358": "ates",
  "1359": "iet",
  "1360": "▁Be",
  "1361": "ty",
  "1362": "nen",
  "1363": "▁start",
  "1364": "▁Ch",
  "1365": "ict",
  "1366": "▁war",
  "1367": "▁Re",
  "1368": "▁θα",
  "1369": "zie",
  "1370": "▁dans",
  "1371": "▁proble",
  "1372": "▁είναι",
  "1373": "row",
  "1374": "con",
  "1375": "ico",
  "1376": "ody",
  "1377": "▁set",
  "1378": "▁cor",
  "1379": "ados",
  "1380": "ible",
  "1381": "▁person",
  "1382": "▁long",
  "1383": "anto",
  "1384": "▁being",
  "1385": "▁after",
  "1386": "▁η",
  "1387": "▁που",
  "1388": "▁aut",
  "1389": "▁ev",
  "1390": "▁No",
  "1391": "▁real",
  "1392": "va",
  "1393": "εν",
  "1394": "ting",
  "1395": "▁point",
  "1396": "ath",
  "1397": "▁pass",
  "1398": "▁υ",
  "1399": "ought",
  "1400": "ti",
  "1401": "▁put",
  "1402": "ner",
  "1403": "▁사",
  "1404": "▁dé",
  "1405": "▁does",
  "1406": "ins",
  "1407": "▁nh",
  "1408": "ás",
  "1409": "cer",
  "1410": "▁many",
  "1411": "▁ب",
  "1412": "▁bas",
  "1413": "ken",
  "1414": "▁different",
  "1415": "▁hand",
  "1416": "▁5",
  "1417": "po",
  "1418": "▁Comm",
  "1419": "▁happ",
  "1420": "olog",
  "1421": "πα",
  "1422": "ni",
  "1423": "ny",
  "1424": "▁fo",
  "1425": "▁men",
  "1426": "▁mon",
  "1427": "▁dass",
  "1428": "▁cour",
  "1429": "▁nie",
  "1430": "▁como",
  "1431": "▁supp",
  "1432": "σει",
  "1433": "▁rep",
  "1434": "ér",
  "1435": "▁4",
  "1436": "습니다",
  "1437": "ph",
  "1438": "ady",
  "1439": "ward",
  "1440": "ουν",
  "1441": "υρ",
  "1442": "ange",
  "1443": "ισ",
  "1444": "▁sub",
  "1445": "ular",
  "1446": "ps",
  "1447": "amento",
  "1448": "▁produ",
  "1449": "▁cap",
  "1450": "▁19",
  "1451": "▁거",
  "1452": "▁Est",
  "1453": "▁auf",
  "1454": "▁before",
  "1455": "▁자",
  "1456": "▁voor",
  "1457": "▁là",
  "1458": "▁mit",
  "1459": "▁fl",
  "1460": "idad",
  "1461": "▁Κ",
  "1462": "▁num",
  "1463": "▁gu",
  "1464": "its",
  "1465": "▁Qu",
  "1466": "vi",
  "1467": "▁mem",
  "1468": "ms",
  "1469": "▁def",
  "1470": "ます",
  "1471": "▁Com",
  "1472": "oy",
  "1473": "▁nat",
  "1474": "▁La",
  "1475": "ks",
  "1476": "ait",
  "1477": "urn",
  "1478": "▁pow",
  "1479": "rib",
  "1480": "▁wer",
  "1481": "ren",
  "1482": "▁mean",
  "1483": "ves",
  "1484": "▁Le",
  "1485": "▁mu",
  "1486": "▁ل",
  "1487": "▁다",
  "1488": "▁pla",
  "1489": "ux",
  "1490": "▁sim",
  "1491": "aj",
  "1492": "gu",
  "1493": "ene",
  "1494": "man",
  "1495": "ów",
  "1496": "als",
  "1497": "▁201",
  "1498": "ión",
  "1499": "▁As",
  "1500": "▁ça",
  "1501": "thing",
  "1502": "ال",
  "1503": "▁inc",
  "1504": "▁same",
  "1505": "ρά",
  "1506": "stem",
  "1507": "ute",
  "1508": "▁progr",
  "1509": "form",
  "1510": "én",
  "1511": "▁eff",
  "1512": "ões",
  "1513": "etz",
  "1514": "ission",
  "1515": "▁się",
  "1516": "▁important",
  "1517": "▁end",
  "1518": "▁cas",
  "1519": "▁수",
  "1520": "ται",
  "1521": "▁것",
  "1522": "▁ins",
  "1523": "▁They",
  "1524": "oth",
  "1525": "ών",
  "1526": "▁χ",
  "1527": "att",
  "1528": "▁gra",
  "1529": "▁nos",
  "1530": "▁τα",
  "1531": "▁보",
  "1532": "▁count",
  "1533": "ên",
  "1534": "τά",
  "1535": "▁ou",
  "1536": "▁Und",
  "1537": "▁There",
  "1538": "▁ng",
  "1539": "ys",
  "1540": "▁partic",
  "1541": "▁made",
  "1542": "▁cre",
  "1543": "ob",
  "1544": "men",
  "1545": "old",
  "1546": "▁find",
  "1547": "▁vi",
  "1548": "▁gi",
  "1549": "vor",
  "1550": "▁such",
  "1551": "up",
  "1552": "▁가",
  "1553": "▁still",
  "1554": "▁plus",
  "1555": "▁try",
  "1556": "self",
  "1557": "ings",
  "1558": "▁πολ",
  "1559": "▁sono",
  "1560": "leg",
  "1561": "urs",
  "1562": "ily",
  "1563": "▁sin",
  "1564": "ities",
  "1565": "λα",
  "1566": "▁여",
  "1567": "▁own",
  "1568": "ativ",
  "1569": "era",
  "1570": "으로",
  "1571": "▁ف",
  "1572": "▁επ",
  "1573": "▁add",
  "1574": "▁med",
  "1575": "▁ca",
  "1576": "ele",
  "1577": "▁ris",
  "1578": "▁leg",
  "1579": "▁va",
  "1580": "▁von",
  "1581": "ém",
  "1582": "ts",
  "1583": "▁mom",
  "1584": "mos",
  "1585": "▁resp",
  "1586": "ano",
  "1587": "▁sm",
  "1588": "▁years",
  "1589": "king",
  "1590": "▁że",
  "1591": "ional",
  "1592": "▁disc",
  "1593": "▁está",
  "1594": "▁three",
  "1595": "imes",
  "1596": "land",
  "1597": "ioni",
  "1598": "▁ع",
  "1599": "ero",
  "1600": "▁dar",
  "1601": "min",
  "1602": "▁Ye",
  "1603": "zo",
  "1604": "▁bit",
  "1605": "rit",
  "1606": "▁might",
  "1607": "ational",
  "1608": "enn",
  "1609": "ull",
  "1610": "▁zij",
  "1611": "ρε",
  "1612": "▁vot",
  "1613": "▁Il",
  "1614": "ather",
  "1615": "▁mi",
  "1616": "par",
  "1617": "▁If",
  "1618": "▁gener",
  "1619": "ιο",
  "1620": "▁conf",
  "1621": "▁dur",
  "1622": "▁show",
  "1623": "▁Es",
  "1624": "▁eine",
  "1625": "azione",
  "1626": "▁nu",
  "1627": "▁questo",
  "1628": "cc",
  "1629": "▁sie",
  "1630": "▁hat",
  "1631": "▁나",
  "1632": "▁cam",
  "1633": "zione",
  "1634": "▁tut",
  "1635": "elle",
  "1636": "ina",
  "1637": "ments",
  "1638": "▁too",
  "1639": "▁val",
  "1640": "▁hier",
  "1641": "iones",
  "1642": "ace",
  "1643": "▁έχ",
  "1644": "pres",
  "1645": "ata",
  "1646": "til",
  "1647": "ically",
  "1648": "▁ja",
  "1649": "▁되",
  "1650": "wer",
  "1651": "▁vers",
  "1652": "▁inform",
  "1653": "▁ότι",
  "1654": "▁ي",
  "1655": "▁für",
  "1656": "▁last",
  "1657": "ider",
  "1658": "した",
  "1659": "▁stud",
  "1660": "ros",
  "1661": "▁far",
  "1662": "φο",
  "1663": "▁doing",
  "1664": "λε",
  "1665": "nie",
  "1666": "▁incl",
  "1667": "▁contin",
  "1668": "▁Okay",
  "1669": "▁What",
  "1670": "▁form",
  "1671": "▁rem",
  "1672": "▁life",
  "1673": "▁question",
  "1674": "==",
  "1675": "endo",
  "1676": "▁fun",
  "1677": "▁dist",
  "1678": "▁Yeah",
  "1679": "▁τι",
  "1680": "λη",
  "1681": "atch",
  "1682": "▁Now",
  "1683": "▁world",
  "1684": "cz",
  "1685": "▁euh",
  "1686": "▁haben",
  "1687": "ific",
  "1688": "erg",
  "1689": "▁αν",
  "1690": "ative",
  "1691": "▁Thank",
  "1692": "ave",
  "1693": "▁지",
  "1694": "▁mas",
  "1695": "ures",
  "1696": "▁ci",
  "1697": "pre",
  "1698": "iter",
  "1699": "▁system",
  "1700": "▁mil",
  "1701": "▁ide",
  "1702": "▁pri",
  "1703": "μέ",
  "1704": "▁polit",
  "1705": "▁Je",
  "1706": "▁ave",
  "1707": "▁από",
  "1708": "▁nous",
  "1709": "▁pi",
  "1710": "して",
  "1711": "▁give",
  "1712": "▁feel",
  "1713": "▁help",
  "1714": "έπ",
  "1715": "▁sich",
  "1716": "▁hum",
  "1717": "▁cent",
  "1718": "▁exp",
  "1719": "▁conc",
  "1720": "ik",
  "1721": "▁Et",
  "1722": "▁word",
  "1723": "▁Is",
  "1724": "▁della",
  "1725": "▁fact",
  "1726": "▁kh",
  "1727": "▁sign",
  "1728": "▁why",
  "1729": "▁vol",
  "1730": "▁dei",
  "1731": "ways",
  "1732": "ores",
  "1733": "my",
  "1734": "ger",
  "1735": "mente",
  "1736": "wa",
  "1737": "에서",
  "1738": "cept",
  "1739": "▁ze",
  "1740": "ues",
  "1741": "▁play",
  "1742": "▁dos",
  "1743": "ention",
  "1744": "▁jest",
  "1745": "▁On",
  "1746": "abil",
  "1747": "ument",
  "1748": "▁ik",
  "1749": "ating",
  "1750": "▁dann",
  "1751": "...",
  "1752": "▁als",
  "1753": "렇게",
  "1754": "ution",
  "1755": "▁situ",
  "1756": "atter",
  "1757": "λά",
  "1758": "cht",
  "1759": "▁των",
  "1760": "vern",
  "1761": "▁ت",
  "1762": "alt",
  "1763": "▁στη",
  "1764": "▁ear",
  "1765": "▁program",
  "1766": "▁tell",
  "1767": "▁tu",
  "1768": "ui",
  "1769": "etzt",
  "1770": "▁second",
  "1771": "▁bien",
  "1772": "ان",
  "1773": "onna",
  "1774": "▁anche",
  "1775": "▁never",
  "1776": "▁another",
  "1777": "▁Ne",
  "1778": "sk",
  "1779": "arch",
  "1780": "▁ret",
  "1781": "▁exam",
  "1782": "ργ",
  "1783": "▁course",
  "1784": "▁este",
  "1785": "blic",
  "1786": "▁best",
  "1787": "▁Oh",
  "1788": "ità",
  "1789": "▁present",
  "1790": "▁pot",
  "1791": "▁alle",
  "1792": "▁10",
  "1793": "▁around",
  "1794": "ween",
  "1795": "▁europe",
  "1796": "zen",
  "1797": "▁Pro",
  "1798": "▁Pr",
  "1799": "gg",
  "1800": "▁place",
  "1801": "▁β",
  "1802": "στ",
  "1803": "ura",
  "1804": "▁sure",
  "1805": "▁\"",
  "1806": "▁sem",
  "1807": "▁yeah",
  "1808": "stand",
  "1809": "▁Ar",
  "1810": "▁Α",
  "1811": "▁한",
  "1812": "▁σε",
  "1813": "▁bec",
  "1814": "▁dies",
  "1815": "ric",
  "1816": "ock",
  "1817": "body",
  "1818": "vol",
  "1819": "▁mal",
  "1820": "▁Das",
  "1821": "▁rest",
  "1822": "ub",
  "1823": "ès",
  "1824": "ited",
  "1825": "▁Π",
  "1826": "▁6",
  "1827": "▁between",
  "1828": "▁high",
  "1829": "ação",
  "1830": "ness",
  "1831": "▁fam",
  "1832": "▁niet",
  "1833": "▁commun",
  "1834": "▁ré",
  "1835": "▁serv",
  "1836": "igen",
  "1837": "▁open",
  "1838": "▁next",
  "1839": "ism",
  "1840": "▁porque",
  "1841": "conom",
  "1842": "▁sl",
  "1843": "ρί",
  "1844": "ku",
  "1845": "▁해",
  "1846": "ense",
  "1847": "ount",
  "1848": "ja",
  "1849": "ông",
  "1850": "iment",
  "1851": "▁gonna",
  "1852": "▁dep",
  "1853": "ane",
  "1854": "▁thought",
  "1855": "▁aqui",
  "1856": "▁prov",
  "1857": "▁An",
  "1858": "▁uns",
  "1859": "▁enc",
  "1860": "▁organ",
  "1861": "έπει",
  "1862": "▁más",
  "1863": "▁Ab",
  "1864": "ret",
  "1865": "▁always",
  "1866": "▁sobre",
  "1867": "いう",
  "1868": "▁Don",
  "1869": "▁ref",
  "1870": "ję",
  "1871": "▁noch",
  "1872": "ções",
  "1873": "ori",
  "1874": "ende",
  "1875": "▁tout",
  "1876": "▁used",
  "1877": "iem",
  "1878": "▁κά",
  "1879": "▁Uh",
  "1880": "▁fait",
  "1881": "▁ask",
  "1882": "▁exper",
  "1883": "▁bro",
  "1884": "▁dr",
  "1885": "cias",
  "1886": "▁때",
  "1887": "νε",
  "1888": "▁contro",
  "1889": "▁wel",
  "1890": "omen",
  "1891": "velop",
  "1892": "▁equ",
  "1893": "sch",
  "1894": "eng",
  "1895": "▁¿",
  "1896": "▁qual",
  "1897": "ried",
  "1898": "▁cur",
  "1899": "▁big",
  "1900": "▁mer",
  "1901": "ek",
  "1902": "▁pop",
  "1903": "▁done",
  "1904": "oup",
  "1905": "▁vis",
  "1906": "▁found",
  "1907": "ibil",
  "1908": "ember",
  "1909": "▁mis",
  "1910": "biamo",
  "1911": "iew",
  "1912": "▁interest",
  "1913": "anz",
  "1914": "aut",
  "1915": "▁must",
  "1916": "▁old",
  "1917": "ouse",
  "1918": "ρχ",
  "1919": "ita",
  "1920": "▁zijn",
  "1921": "hip",
  "1922": "▁able",
  "1923": "hen",
  "1924": "▁wy",
  "1925": "▁vor",
  "1926": "▁giv",
  "1927": "mi",
  "1928": "▁year",
  "1929": "ste",
  "1930": "▁Pres",
  "1931": "ida",
  "1932": "ρό",
  "1933": "ée",
  "1934": "▁υπ",
  "1935": "θε",
  "1936": "▁char",
  "1937": "▁comple",
  "1938": "▁sort",
  "1939": "▁guy",
  "1940": "▁x",
  "1941": "▁cá",
  "1942": "▁prin",
  "1943": "▁δεν",
  "1944": "led",
  "1945": "ics",
  "1946": "▁sind",
  "1947": "▁πα",
  "1948": "▁bus",
  "1949": "μο",
  "1950": "▁To",
  "1951": "▁aus",
  "1952": "aar",
  "1953": "ön",
  "1954": "▁lar",
  "1955": "▁Ich",
  "1956": "▁came",
  "1957": "ette",
  "1958": "▁wr",
  "1959": "▁const",
  "1960": "ert",
  "1961": "▁ook",
  "1962": "ji",
  "1963": "▁wie",
  "1964": "tern",
  "1965": "els",
  "1966": "ural",
  "1967": "raw",
  "1968": "▁cle",
  "1969": "▁tro",
  "1970": "ets",
  "1971": "▁Fr",
  "1972": "gun",
  "1973": "▁Σ",
  "1974": "ude",
  "1975": "ís",
  "1976": "▁certain",
  "1977": "▁Sch",
  "1978": "ollow",
  "1979": "يه",
  "1980": "ably",
  "1981": "▁dan",
  "1982": "▁200",
  "1983": "by",
  "1984": "نا",
  "1985": "▁pun",
  "1986": "esso",
  "1987": "▁om",
  "1988": "χα",
  "1989": "ono",
  "1990": "▁process",
  "1991": "ère",
  "1992": "った",
  "1993": "▁뭐",
  "1994": "ima",
  "1995": "▁happen",
  "1996": "bém",
  "1997": "▁number",
  "1998": "▁ir",
  "1999": "▁art",
  "2000": "ocê",
  "2001": "▁δια",
  "2002": "▁heb",
  "2003": "▁jetzt",
  "2004": "▁belie",
  "2005": "tó",
  "2006": "▁sou",
  "2007": "zer",
  "2008": "▁7",
  "2009": "▁prof",
  "2010": "▁제",
  "2011": "▁sent",
  "2012": "▁stand",
  "2013": "▁intern",
  "2014": "▁cos",
  "2015": "▁parte",
  "2016": "▁better",
  "2017": "▁sal",
  "2018": "▁grand",
  "2019": "▁four",
  "2020": "über",
  "2021": "ras",
  "2022": "▁develop",
  "2023": "▁list",
  "2024": "▁deb",
  "2025": "▁govern",
  "2026": "ana",
  "2027": "iness",
  "2028": "▁sk",
  "2029": "▁vide",
  "2030": "ats",
  "2031": "▁each",
  "2032": "▁data",
  "2033": "ital",
  "2034": "▁bre",
  "2035": "▁love",
  "2036": "▁ple",
  "2037": "▁이렇게",
  "2038": "erd",
  "2039": "▁mor",
  "2040": "▁ans",
  "2041": "▁αυτό",
  "2042": "▁called",
  "2043": "ité",
  "2044": "▁ext",
  "2045": "ruct",
  "2046": "▁upon",
  "2047": "ani",
  "2048": "▁both",
  "2049": "▁while",
  "2050": "▁run",
  "2051": "iamo",
  "2052": "bal",
  "2053": "▁appro",
  "2054": "vent",
  "2055": "ché",
  "2056": "ación",
  "2057": "▁==",
  "2058": "une",
  "2059": "▁Parl",
  "2060": "▁keep",
  "2061": "bo",
  "2062": "▁wo",
  "2063": "ize",
  "2064": "▁eng",
  "2065": "ants",
  "2066": "▁στο",
  "2067": "▁Gra",
  "2068": "ices",
  "2069": "▁πε",
  "2070": "idente",
  "2071": "▁cho",
  "2072": "는데",
  "2073": "▁któ",
  "2074": "▁prob",
  "2075": "rio",
  "2076": "▁okay",
  "2077": "▁이제",
  "2078": "σουμε",
  "2079": "▁opp",
  "2080": "▁werden",
  "2081": "▁esta",
  "2082": "υρω",
  "2083": "ister",
  "2084": "▁também",
  "2085": "▁πρέπει",
  "2086": "▁invest",
  "2087": "ungen",
  "2088": "▁Die",
  "2089": "▁gl",
  "2090": "▁problem",
  "2091": "oun",
  "2092": "▁delle",
  "2093": "▁aber",
  "2094": "▁head",
  "2095": "▁follow",
  "2096": "▁didn",
  "2097": "ede",
  "2098": "any",
  "2099": "▁8",
  "2100": "▁내",
  "2101": "ever",
  "2102": "▁away",
  "2103": "▁θέ",
  "2104": "▁tech",
  "2105": "▁정",
  "2106": "▁Ver",
  "2107": "hor",
  "2108": "▁direct",
  "2109": "▁대",
  "2110": "οι",
  "2111": "▁hay",
  "2112": "▁안",
  "2113": "▁propos",
  "2114": "▁today",
  "2115": "bién",
  "2116": "▁μα",
  "2117": "uff",
  "2118": "ươ",
  "2119": "lement",
  "2120": "▁went",
  "2121": "hn",
  "2122": "▁avec",
  "2123": "ron",
  "2124": "▁lear",
  "2125": "から",
  "2126": "ined",
  "2127": "ige",
  "2128": "▁moment",
  "2129": "riend",
  "2130": "τή",
  "2131": "▁finan",
  "2132": "cie",
  "2133": "▁Eu",
  "2134": "▁στην",
  "2135": "▁entre",
  "2136": "▁aff",
  "2137": "▁dev",
  "2138": "▁beg",
  "2139": "ool",
  "2140": "▁For",
  "2141": "anie",
  "2142": "ior",
  "2143": "▁consider",
  "2144": "ently",
  "2145": "ering",
  "2146": "fic",
  "2147": "ines",
  "2148": "oi",
  "2149": "▁care",
  "2150": "rat",
  "2151": "ages",
  "2152": "wor",
  "2153": "▁support",
  "2154": "▁같",
  "2155": "▁Con",
  "2156": "esch",
  "2157": "press",
  "2158": "gli",
  "2159": "lt",
  "2160": "▁và",
  "2161": "▁prote",
  "2162": "ική",
  "2163": "▁looking",
  "2164": "vis",
  "2165": "άλ",
  "2166": "니까",
  "2167": "▁econom",
  "2168": "▁Ent",
  "2169": "▁name",
  "2170": "▁understand",
  "2171": "▁dit",
  "2172": "▁How",
  "2173": "▁against",
  "2174": "ię",
  "2175": "▁read",
  "2176": "▁seem",
  "2177": "▁ot",
  "2178": "▁Well",
  "2179": "▁vari",
  "2180": "ious",
  "2181": "cul",
  "2182": "eten",
  "2183": "▁human",
  "2184": "ello",
  "2185": "▁mus",
  "2186": "eren",
  "2187": "▁without",
  "2188": "▁All",
  "2189": "▁mark",
  "2190": "υρωπα",
  "2191": "▁9",
  "2192": "▁child",
  "2193": "ready",
  "2194": "gether",
  "2195": "▁fut",
  "2196": "ない",
  "2197": "ασ",
  "2198": "▁land",
  "2199": "anno",
  "2200": "ario",
  "2201": "▁turn",
  "2202": "▁fund",
  "2203": "elt",
  "2204": "▁prze",
  "2205": "▁iss",
  "2206": "▁power",
  "2207": "ason",
  "2208": "000",
  "2209": "νω",
  "2210": "▁memb",
  "2211": "▁state",
  "2212": "▁loc",
  "2213": "▁El",
  "2214": "elij",
  "2215": "iene",
  "2216": "omis",
  "2217": "ania",
  "2218": "oud",
  "2219": "▁có",
  "2220": "▁ste",
  "2221": "▁ك",
  "2222": "▁ه",
  "2223": "▁muito",
  "2224": "▁od",
  "2225": "▁already",
  "2226": "ress",
  "2227": "▁fal",
  "2228": "▁example",
  "2229": "▁aan",
  "2230": "▁whole",
  "2231": "▁European",
  "2232": "▁cond",
  "2233": "▁mind",
  "2234": "▁public",
  "2235": "▁á",
  "2236": "▁저",
  "2237": "▁그래",
  "2238": "oney",
  "2239": "▁port",
  "2240": "▁pay",
  "2241": "ott",
  "2242": "▁few",
  "2243": "▁기",
  "2244": "imo",
  "2245": "ϊκ",
  "2246": "ści",
  "2247": "ille",
  "2248": "ela",
  "2249": "▁hard",
  "2250": "▁시",
  "2251": "▁오",
  "2252": "sten",
  "2253": "ivers",
  "2254": "▁favor",
  "2255": "idade",
  "2256": "ized",
  "2257": "▁hab",
  "2258": "▁mag",
  "2259": "▁importante",
  "2260": "ali",
  "2261": "▁God",
  "2262": "indi",
  "2263": "▁É",
  "2264": "▁move",
  "2265": "▁having",
  "2266": "▁necess",
  "2267": "ột",
  "2268": "▁più",
  "2269": "▁Por",
  "2270": "▁pero",
  "2271": "ον",
  "2272": "▁Τ",
  "2273": "ła",
  "2274": "▁side",
  "2275": "▁Go",
  "2276": "▁οι",
  "2277": "υρωπαϊκ",
  "2278": "▁thank",
  "2279": "lic",
  "2280": "ít",
  "2281": "▁우",
  "2282": "▁oh",
  "2283": "▁beh",
  "2284": "▁Mar",
  "2285": "▁pret",
  "2286": "▁soci",
  "2287": "▁small",
  "2288": "▁jo",
  "2289": "ρη",
  "2290": "▁también",
  "2291": "sel",
  "2292": "ils",
  "2293": "aw",
  "2294": "▁together",
  "2295": "ode",
  "2296": "ique",
  "2297": "▁Sie",
  "2298": "▁dest",
  "2299": "ird",
  "2300": "▁particular",
  "2301": "rag",
  "2302": "▁lead",
  "2303": "こと",
  "2304": "ished",
  "2305": "▁mes",
  "2306": "▁build",
  "2307": "▁Me",
  "2308": "té",
  "2309": "▁một",
  "2310": "▁fu",
  "2311": "▁top",
  "2312": "air",
  "2313": "ief",
  "2314": "ortun",
  "2315": "▁speci",
  "2316": "▁case",
  "2317": "ared",
  "2318": "aten",
  "2319": "▁change",
  "2320": "▁απο",
  "2321": "pos",
  "2322": "ματα",
  "2323": "▁requ",
  "2324": "▁once",
  "2325": "ęd",
  "2326": "orn",
  "2327": "▁tot",
  "2328": "ischen",
  "2329": "▁contra",
  "2330": "erv",
  "2331": "▁water",
  "2332": "▁maybe",
  "2333": "▁hal",
  "2334": "▁social",
  "2335": "▁λ",
  "2336": "ral",
  "2337": "▁friend",
  "2338": "▁left",
  "2339": "ries",
  "2340": "▁result",
  "2341": "▁hist",
  "2342": "▁ey",
  "2343": "σα",
  "2344": "être",
  "2345": "▁viel",
  "2346": "▁though",
  "2347": "▁fre",
  "2348": "▁eas",
  "2349": "▁você",
  "2350": "▁über",
  "2351": "▁przy",
  "2352": "▁colle",
  "2353": "ateg",
  "2354": "▁sont",
  "2355": "present",
  "2356": "▁من",
  "2357": "라고",
  "2358": "▁Let",
  "2359": "▁means",
  "2360": "▁princi",
  "2361": "eld",
  "2362": "▁level",
  "2363": "iver",
  "2364": "▁guys",
  "2365": "uf",
  "2366": "έρ",
  "2367": "▁ان",
  "2368": "zą",
  "2369": "ingen",
  "2370": "▁mol",
  "2371": "ours",
  "2372": "▁test",
  "2373": "▁minut",
  "2374": "jor",
  "2375": "▁fac",
  "2376": "ân",
  "2377": "ety",
  "2378": "cri",
  "2379": "cha",
  "2380": "▁Donc",
  "2381": "▁creat",
  "2382": "ós",
  "2383": "ino",
  "2384": "▁speak",
  "2385": "▁jak",
  "2386": "iti",
  "2387": "▁order",
  "2388": "anc",
  "2389": "▁money",
  "2390": "▁cal",
  "2391": "▁everything",
  "2392": "▁bard",
  "2393": "▁Mr",
  "2394": "▁ή",
  "2395": "▁bi",
  "2396": "alth",
  "2397": "▁kann",
  "2398": "ctor",
  "2399": "▁μπο",
  "2400": "ją",
  "2401": "▁quite",
  "2402": "▁없",
  "2403": "▁occ",
  "2404": "▁Wir",
  "2405": "ques",
  "2406": "▁super",
  "2407": "▁suc",
  "2408": "▁book",
  "2409": "ili",
  "2410": "▁mill",
  "2411": "له",
  "2412": "ami",
  "2413": "▁exc",
  "2414": "▁norm",
  "2415": "▁light",
  "2416": "▁bar",
  "2417": "▁gar",
  "2418": "▁anything",
  "2419": "▁kön",
  "2420": "ườ",
  "2421": "▁ed",
  "2422": "▁talking",
  "2423": "▁في",
  "2424": "▁home",
  "2425": "▁main",
  "2426": "▁coming",
  "2427": "▁bra",
  "2428": "▁있는",
  "2429": "▁pet",
  "2430": "▁probably",
  "2431": "ield",
  "2432": "▁Sp",
  "2433": "τική",
  "2434": "▁Er",
  "2435": "▁law",
  "2436": "▁continu",
  "2437": "▁wird",
  "2438": "▁dro",
  "2439": "▁discuss",
  "2440": "▁wenn",
  "2441": "▁defin",
  "2442": "▁mr",
  "2443": "ました",
  "2444": "▁oper",
  "2445": "▁effect",
  "2446": "ender",
  "2447": "▁일",
  "2448": "▁video",
  "2449": "duc",
  "2450": "▁fil",
  "2451": "ix",
  "2452": "▁energ",
  "2453": "▁faire",
  "2454": "pro",
  "2455": "▁주",
  "2456": "▁ws",
  "2457": "ommen",
  "2458": "▁الم",
  "2459": "▁working",
  "2460": "▁sus",
  "2461": "▁neg",
  "2462": "ين",
  "2463": "▁Do",
  "2464": "▁seg",
  "2465": "▁dom",
  "2466": "▁trying",
  "2467": "▁plan",
  "2468": "ett",
  "2469": "urch",
  "2470": "rig",
  "2471": "▁Και",
  "2472": "들이",
  "2473": "んです",
  "2474": "▁using",
  "2475": "ême",
  "2476": "▁말",
  "2477": "▁ant",
  "2478": "▁sul",
  "2479": "σε",
  "2480": "▁era",
  "2481": "▁saying",
  "2482": "▁πολύ",
  "2483": "▁less",
  "2484": "less",
  "2485": "▁idea",
  "2486": "ike",
  "2487": "▁ah",
  "2488": "ga",
  "2489": "▁nam",
  "2490": "어요",
  "2491": "▁tou",
  "2492": "owa",
  "2493": "▁seen",
  "2494": "entes",
  "2495": "▁house",
  "2496": "▁questions",
  "2497": "aria",
  "2498": "▁todos",
  "2499": "▁abs",
  "2500": "▁country",
  "2501": "▁isso",
  "2502": "▁getting",
  "2503": "ka",
  "2504": "ience",
  "2505": "▁pal",
  "2506": "▁doesn",
  "2507": "▁lang",
  "2508": "لا",
  "2509": "▁project",
  "2510": "▁Δ",
  "2511": "▁miss",
  "2512": "▁chang",
  "2513": "▁señ",
  "2514": "▁Tr",
  "2515": "▁inde",
  "2516": "iten",
  "2517": "ists",
  "2518": "▁gro",
  "2519": "▁espe",
  "2520": "▁business",
  "2521": "▁five",
  "2522": "▁cette",
  "2523": "▁Her",
  "2524": "▁Europa",
  "2525": "20",
  "2526": "agen",
  "2527": "▁lim",
  "2528": "▁techn",
  "2529": "▁questa",
  "2530": "▁information",
  "2531": "ria",
  "2532": "▁class",
  "2533": "▁Te",
  "2534": "γκ",
  "2535": "ters",
  "2536": "ither",
  "2537": "▁todo",
  "2538": "▁sein",
  "2539": "ately",
  "2540": "▁전",
  "2541": "▁yet",
  "2542": "cho",
  "2543": "▁Europ",
  "2544": "port",
  "2545": "ether",
  "2546": "wi",
  "2547": "ko",
  "2548": "▁nothing",
  "2549": "▁gli",
  "2550": "▁within",
  "2551": "▁door",
  "2552": "▁tre",
  "2553": "vious",
  "2554": "ella",
  "2555": "하고",
  "2556": "υχα",
  "2557": "▁yo",
  "2558": "▁hope",
  "2559": "▁생",
  "2560": "ush",
  "2561": "います",
  "2562": "▁times",
  "2563": "▁face",
  "2564": "▁enough",
  "2565": "▁nas",
  "2566": "äh",
  "2567": "▁여기",
  "2568": "cle",
  "2569": "uen",
  "2570": "という",
  "2571": "orte",
  "2572": "ator",
  "2573": "▁vra",
  "2574": "▁gente",
  "2575": "▁Or",
  "2576": "ych",
  "2577": "▁dig",
  "2578": "ema",
  "2579": "▁perché",
  "2580": "▁mot",
  "2581": "wh",
  "2582": "▁Commission",
  "2583": "ira",
  "2584": "▁επι",
  "2585": "▁uhm",
  "2586": "υχαρι",
  "2587": "▁마",
  "2588": "▁ao",
  "2589": "▁comme",
  "2590": "▁Έ",
  "2591": "▁clear",
  "2592": "▁الا",
  "2593": "▁perm",
  "2594": "σω",
  "2595": "▁hear",
  "2596": "▁dir",
  "2597": "▁report",
  "2598": "▁oder",
  "2599": "▁decis",
  "2600": "med",
  "2601": "▁Also",
  "2602": "▁sing",
  "2603": "▁chi",
  "2604": "ische",
  "2605": "στε",
  "2606": "▁stuff",
  "2607": "▁low",
  "2608": "▁compr",
  "2609": "ότη",
  "2610": "▁bardzo",
  "2611": "ete",
  "2612": "▁hebben",
  "2613": "▁essere",
  "2614": "ios",
  "2615": "▁Af",
  "2616": "onder",
  "2617": "▁Commiss",
  "2618": "reen",
  "2619": "zu",
  "2620": "▁país",
  "2621": "ology",
  "2622": "▁saw",
  "2623": "▁Ευρωπαϊκ",
  "2624": "▁μια",
  "2625": "▁cost",
  "2626": "cio",
  "2627": "czy",
  "2628": "▁sab",
  "2629": "▁18",
  "2630": "▁young",
  "2631": "▁15",
  "2632": "▁dam",
  "2633": "▁pretty",
  "2634": "▁εί",
  "2635": "ba",
  "2636": "ات",
  "2637": "▁그래서",
  "2638": "rij",
  "2639": "cil",
  "2640": "λογ",
  "2641": "cted",
  "2642": "νη",
  "2643": "▁muy",
  "2644": "▁rapp",
  "2645": "▁αλ",
  "2646": "▁includ",
  "2647": "▁school",
  "2648": "▁bene",
  "2649": "▁Ja",
  "2650": "ton",
  "2651": "▁diffic",
  "2652": "▁util",
  "2653": "▁allow",
  "2654": "▁product",
  "2655": "cis",
  "2656": "▁ya",
  "2657": "adas",
  "2658": "jet",
  "2659": "esse",
  "2660": "▁believe",
  "2661": "ired",
  "2662": "▁tri",
  "2663": "▁donc",
  "2664": "▁alt",
  "2665": "▁Ge",
  "2666": "▁Parlamento",
  "2667": "▁ont",
  "2668": "ides",
  "2669": "▁부",
  "2670": "▁conse",
  "2671": "▁ένα",
  "2672": "άρχ",
  "2673": "▁ti",
  "2674": "ash",
  "2675": "▁우리",
  "2676": "▁took",
  "2677": "▁government",
  "2678": "▁says",
  "2679": "ted",
  "2680": "oman",
  "2681": "▁많",
  "2682": "▁respons",
  "2683": "▁answer",
  "2684": "▁god",
  "2685": "▁line",
  "2686": "▁watch",
  "2687": "▁Ind",
  "2688": "▁πρό",
  "2689": "▁Pa",
  "2690": "▁vai",
  "2691": "ivo",
  "2692": "osed",
  "2693": "ining",
  "2694": "▁bring",
  "2695": "▁meet",
  "2696": "▁EU",
  "2697": "▁Because",
  "2698": "▁좀",
  "2699": "most",
  "2700": "ased",
  "2701": "▁pap",
  "2702": "iva",
  "2703": "입니다",
  "2704": "ss",
  "2705": "▁during",
  "2706": "ista",
  "2707": "ượ",
  "2708": "▁making",
  "2709": "▁game",
  "2710": "▁Per",
  "2711": "jo",
  "2712": "εδ",
  "2713": "▁adv",
  "2714": "ote",
  "2715": "▁Sh",
  "2716": "▁ga",
  "2717": "▁sw",
  "2718": "ara",
  "2719": "▁comes",
  "2720": "ini",
  "2721": "▁rece",
  "2722": "▁συμ",
  "2723": "▁sen",
  "2724": "▁prom",
  "2725": "▁μέ",
  "2726": "ym",
  "2727": "elijk",
  "2728": "▁since",
  "2729": "▁모",
  "2730": "▁organiz",
  "2731": "▁Fra",
  "2732": "▁tá",
  "2733": "▁그러",
  "2734": "kes",
  "2735": "inal",
  "2736": "ler",
  "2737": "리고",
  "2738": "eden",
  "2739": "▁red",
  "2740": "▁cir",
  "2741": "▁post",
  "2742": "▁pou",
  "2743": "τί",
  "2744": "▁nel",
  "2745": "bra",
  "2746": "▁bes",
  "2747": "▁δι",
  "2748": "▁Chr",
  "2749": "▁himself",
  "2750": "하는",
  "2751": "εται",
  "2752": "zię",
  "2753": "ło",
  "2754": "cze",
  "2755": "▁바",
  "2756": "▁night",
  "2757": "▁않",
  "2758": "selves",
  "2759": "▁tw",
  "2760": "isch",
  "2761": "lij",
  "2762": "▁exist",
  "2763": "uto",
  "2764": "▁At",
  "2765": "wards",
  "2766": "▁general",
  "2767": "ät",
  "2768": "zia",
  "2769": "▁possible",
  "2770": "▁matter",
  "2771": "▁incre",
  "2772": "▁prim",
  "2773": "▁sehr",
  "2774": "empl",
  "2775": "▁peu",
  "2776": "▁fat",
  "2777": "▁ges",
  "2778": "▁αυτή",
  "2779": "▁pens",
  "2780": "▁expl",
  "2781": "▁Europea",
  "2782": "υχαριστ",
  "2783": "▁εκ",
  "2784": "ream",
  "2785": "▁pon",
  "2786": "ided",
  "2787": "ibt",
  "2788": "▁만",
  "2789": "▁half",
  "2790": "ole",
  "2791": "ussi",
  "2792": "▁zo",
  "2793": "▁nach",
  "2794": "▁sta",
  "2795": "さん",
  "2796": "▁trad",
  "2797": "ury",
  "2798": "▁fond",
  "2799": "bs",
  "2800": "▁peut",
  "2801": "▁cult",
  "2802": "▁nor",
  "2803": "ungs",
  "2804": "▁control",
  "2805": "▁même",
  "2806": "▁τον",
  "2807": "▁room",
  "2808": "▁Μ",
  "2809": "▁περι",
  "2810": "▁later",
  "2811": "▁deve",
  "2812": "τρο",
  "2813": "▁wanted",
  "2814": "itions",
  "2815": "▁sci",
  "2816": "σι",
  "2817": "not",
  "2818": "ki",
  "2819": "▁fig",
  "2820": "▁nur",
  "2821": "ới",
  "2822": "▁bei",
  "2823": "▁else",
  "2824": "▁très",
  "2825": "iden",
  "2826": "uc",
  "2827": "▁kon",
  "2828": "▁rela",
  "2829": "▁obs",
  "2830": "▁사람",
  "2831": "▁dou",
  "2832": "▁예",
  "2833": "▁mir",
  "2834": "▁za",
  "2835": "▁지금",
  "2836": "▁einen",
  "2837": "▁air",
  "2838": "▁12",
  "2839": "▁né",
  "2840": "▁Επ",
  "2841": "▁grow",
  "2842": "▁diese",
  "2843": "ρού",
  "2844": "esto",
  "2845": "▁そ",
  "2846": "unt",
  "2847": "▁상",
  "2848": "▁priv",
  "2849": "▁Não",
  "2850": "▁reason",
  "2851": "▁bon",
  "2852": "át",
  "2853": "▁stat",
  "2854": "ươi",
  "2855": "▁ger",
  "2856": "ling",
  "2857": "μό",
  "2858": "▁esc",
  "2859": "▁month",
  "2860": "해서",
  "2861": "▁Ah",
  "2862": "▁When",
  "2863": "pped",
  "2864": "ule",
  "2865": "▁εν",
  "2866": "▁Amer",
  "2867": "▁until",
  "2868": "▁Ag",
  "2869": "▁pen",
  "2870": "ńst",
  "2871": "ail",
  "2872": "▁week",
  "2873": "▁whether",
  "2874": "▁그런",
  "2875": "▁mươi",
  "2876": "▁appe",
  "2877": "▁She",
  "2878": "▁Mu",
  "2879": "acc",
  "2880": "iệ",
  "2881": "▁alla",
  "2882": "▁ben",
  "2883": "▁My",
  "2884": "▁refer",
  "2885": "▁σα",
  "2886": "▁heart",
  "2887": "▁οπο",
  "2888": "▁sat",
  "2889": "▁こ",
  "2890": "▁often",
  "2891": "▁six",
  "2892": "▁Ad",
  "2893": "λοι",
  "2894": "▁عل",
  "2895": "thers",
  "2896": "▁Like",
  "2897": "λή",
  "2898": "▁final",
  "2899": "ما",
  "2900": "▁learn",
  "2901": "vir",
  "2902": "aba",
  "2903": "ient",
  "2904": "ards",
  "2905": "▁near",
  "2906": "▁ση",
  "2907": "bar",
  "2908": "▁days",
  "2909": "▁ανα",
  "2910": "app",
  "2911": "ption",
  "2912": "▁polít",
  "2913": "ại",
  "2914": "yn",
  "2915": "▁또",
  "2916": "▁least",
  "2917": "amp",
  "2918": "eder",
  "2919": "imento",
  "2920": "▁들",
  "2921": "را",
  "2922": "▁ihr",
  "2923": "▁begin",
  "2924": "esearch",
  "2925": "▁fav",
  "2926": "ump",
  "2927": "▁free",
  "2928": "▁daar",
  "2929": "▁mult",
  "2930": "▁view",
  "2931": "▁sel",
  "2932": "▁좋",
  "2933": "▁Presidente",
  "2934": "▁já",
  "2935": "fect",
  "2936": "▁success",
  "2937": "mar",
  "2938": "▁started",
  "2939": "▁Ex",
  "2940": "ature",
  "2941": "▁pract",
  "2942": "Un",
  "2943": "▁schon",
  "2944": "▁sea",
  "2945": "▁live",
  "2946": "elo",
  "2947": "tait",
  "2948": "▁ale",
  "2949": "▁ح",
  "2950": "iert",
  "2951": "▁quanto",
  "2952": "ها",
  "2953": "▁yes",
  "2954": "▁nost",
  "2955": "ales",
  "2956": "▁object",
  "2957": "▁củ",
  "2958": "▁mater",
  "2959": "▁bad",
  "2960": "0.",
  "2961": "εια",
  "2962": "▁wat",
  "2963": "▁design",
  "2964": "▁Um",
  "2965": "▁Commissione",
  "2966": "atever",
  "2967": "▁remember",
  "2968": "ivid",
  "2969": "▁group",
  "2970": "▁φ",
  "2971": "ered",
  "2972": "▁contr",
  "2973": "emy",
  "2974": "por",
  "2975": "▁respect",
  "2976": "ét",
  "2977": "▁shall",
  "2978": "▁요",
  "2979": "▁các",
  "2980": "▁activ",
  "2981": "▁quick",
  "2982": "ίε",
  "2983": "▁cz",
  "2984": "▁아니",
  "2985": "▁vez",
  "2986": "jsk",
  "2987": "▁bis",
  "2988": "▁của",
  "2989": "▁full",
  "2990": "υχαριστώ",
  "2991": "ross",
  "2992": "uck",
  "2993": "enti",
  "2994": "▁quindi",
  "2995": "▁이런",
  "2996": "▁uit",
  "2997": "▁market",
  "2998": "▁vamos",
  "2999": "▁ni",
  "3000": "▁area",
  "3001": "▁polic",
  "3002": "▁hor",
  "3003": "▁aussi",
  "3004": "▁heard",
  "3005": "idd",
  "3006": "▁kne",
  "3007": "▁legis",
  "3008": "0,",
  "3009": "▁arri",
  "3010": "for",
  "3011": "▁represent",
  "3012": "eg",
  "3013": "▁access",
  "3014": "of",
  "3015": "itar",
  "3016": "▁συν",
  "3017": "▁bed",
  "3018": "ison",
  "3019": "▁fur",
  "3020": "▁hon",
  "3021": "▁terms",
  "3022": "▁ven",
  "3023": "▁given",
  "3024": "▁Lo",
  "3025": "ρή",
  "3026": "▁worden",
  "3027": "mal",
  "3028": "▁base",
  "3029": "ły",
  "3030": "▁ن",
  "3031": "▁προσ",
  "3032": "▁doc",
  "3033": "▁여러",
  "3034": "zięku",
  "3035": "άν",
  "3036": "▁glo",
  "3037": "▁One",
  "3038": "ges",
  "3039": "nych",
  "3040": "▁large",
  "3041": "bor",
  "3042": "▁vou",
  "3043": "line",
  "3044": "▁almost",
  "3045": "▁anal",
  "3046": "λέ",
  "3047": "▁fall",
  "3048": "▁zum",
  "3049": "aps",
  "3050": "ances",
  "3051": "▁ق",
  "3052": "chte",
  "3053": "▁hij",
  "3054": "▁job",
  "3055": "ziękuję",
  "3056": "amy",
  "3057": "▁eyes",
  "3058": "▁abbiamo",
  "3059": "▁due",
  "3060": "iro",
  "3061": "▁indust",
  "3062": "ulation",
  "3063": "αν",
  "3064": "▁Em",
  "3065": "▁har",
  "3066": "▁told",
  "3067": "▁strong",
  "3068": "änd",
  "3069": "▁sil",
  "3070": "する",
  "3071": "▁nom",
  "3072": "νομ",
  "3073": "▁게",
  "3074": "▁orig",
  "3075": "esta",
  "3076": "idades",
  "3077": "▁conne",
  "3078": "▁mention",
  "3079": "▁Γ",
  "3080": "아요",
  "3081": "▁Jo",
  "3082": "▁ident",
  "3083": "▁health",
  "3084": "▁Christ",
  "3085": "▁verd",
  "3086": "▁Ο",
  "3087": "▁Dank",
  "3088": "igu",
  "3089": "aro",
  "3090": "▁Can",
  "3091": "▁women",
  "3092": "imos",
  "3093": "▁εξ",
  "3094": "▁중",
  "3095": "▁Uhm",
  "3096": "▁zw",
  "3097": "ίζ",
  "3098": "▁asked",
  "3099": "▁Mas",
  "3100": "▁trou",
  "3101": "▁body",
  "3102": "iste",
  "3103": "▁pan",
  "3104": "udo",
  "3105": "▁walk",
  "3106": "▁comun",
  "3107": "▁step",
  "3108": "▁parce",
  "3109": "▁sto",
  "3110": "ola",
  "3111": "▁posit",
  "3112": "▁contrib",
  "3113": "▁aw",
  "3114": "▁team",
  "3115": "iod",
  "3116": "ones",
  "3117": "▁Mais",
  "3118": "▁whatever",
  "3119": "▁Θ",
  "3120": "▁along",
  "3121": "▁하나",
  "3122": "▁dri",
  "3123": "da",
  "3124": "▁Just",
  "3125": "وا",
  "3126": "▁ú",
  "3127": "ến",
  "3128": "ăm",
  "3129": "▁comb",
  "3130": "▁countries",
  "3131": "iche",
  "3132": "▁foi",
  "3133": "▁gibt",
  "3134": "irl",
  "3135": "ρέ",
  "3136": "▁quel",
  "3137": "ordo",
  "3138": "▁wait",
  "3139": "▁조",
  "3140": "▁mess",
  "3141": "▁New",
  "3142": "śmy",
  "3143": "▁더",
  "3144": "▁Ευρωπαϊκή",
  "3145": "enden",
  "3146": "ellen",
  "3147": "▁pare",
  "3148": "inter",
  "3149": "▁prz",
  "3150": "▁concl",
  "3151": "▁community",
  "3152": "▁können",
  "3153": "▁hold",
  "3154": "nic",
  "3155": "gar",
  "3156": "▁pur",
  "3157": "▁lie",
  "3158": "▁foc",
  "3159": "ctions",
  "3160": "▁dal",
  "3161": "▁known",
  "3162": "rent",
  "3163": "▁words",
  "3164": "▁그리고",
  "3165": "zyst",
  "3166": "▁ces",
  "3167": "▁deal",
  "3168": "ψη",
  "3169": "▁teach",
  "3170": "▁forma",
  "3171": "▁press",
  "3172": "▁molto",
  "3173": "ror",
  "3174": "▁분",
  "3175": "▁maar",
  "3176": "▁υπάρχ",
  "3177": "▁princip",
  "3178": "▁gest",
  "3179": "▁Uni",
  "3180": "▁short",
  "3181": "ύρι",
  "3182": "▁cla",
  "3183": "iej",
  "3184": "ube",
  "3185": "ência",
  "3186": "ình",
  "3187": "▁Si",
  "3188": "▁Min",
  "3189": "olo",
  "3190": "ending",
  "3191": "▁become",
  "3192": "ταν",
  "3193": "val",
  "3194": "▁research",
  "3195": "▁mig",
  "3196": "zioni",
  "3197": "▁Ma",
  "3198": "▁έχουμε",
  "3199": "lu",
  "3200": "▁hu",
  "3201": "▁proper",
  "3202": "▁exact",
  "3203": "ieren",
  "3204": "▁family",
  "3205": "▁Am",
  "3206": "ées",
  "3207": "▁sens",
  "3208": "▁będ",
  "3209": "▁city",
  "3210": "▁Pl",
  "3211": "▁past",
  "3212": "▁ann",
  "3213": "▁obrig",
  "3214": "▁Gr",
  "3215": "▁sor",
  "3216": "reg",
  "3217": "ilt",
  "3218": "▁simple",
  "3219": "▁wind",
  "3220": "ids",
  "3221": "ieder",
  "3222": "aciones",
  "3223": "▁bij",
  "3224": "▁mü",
  "3225": "▁αλλά",
  "3226": "▁δη",
  "3227": "pet",
  "3228": "▁س",
  "3229": "ying",
  "3230": "▁merc",
  "3231": "▁soon",
  "3232": "▁κατά",
  "3233": "▁individ",
  "3234": "▁suff",
  "3235": "ون",
  "3236": "rew",
  "3237": "ất",
  "3238": "▁check",
  "3239": "▁hai",
  "3240": "▁major",
  "3241": "ava",
  "3242": "ples",
  "3243": "▁across",
  "3244": "▁looked",
  "3245": "▁tym",
  "3246": "itos",
  "3247": "cu",
  "3248": "▁true",
  "3249": "lish",
  "3250": "▁mehr",
  "3251": "rei",
  "3252": "▁ai",
  "3253": "▁경",
  "3254": "ony",
  "3255": "▁future",
  "3256": "▁esto",
  "3257": "put",
  "3258": "▁others",
  "3259": "▁sist",
  "3260": "▁mö",
  "3261": "used",
  "3262": "▁difficult",
  "3263": "ść",
  "3264": "▁states",
  "3265": "▁nuest",
  "3266": "いる",
  "3267": "▁há",
  "3268": "▁tiene",
  "3269": "▁czy",
  "3270": "▁taken",
  "3271": "▁Estados",
  "3272": "▁sense",
  "3273": "▁space",
  "3274": "▁period",
  "3275": "cially",
  "3276": "▁expect",
  "3277": "str",
  "3278": "▁liber",
  "3279": "▁rather",
  "3280": "▁children",
  "3281": "▁Ik",
  "3282": "▁fazer",
  "3283": "▁Car",
  "3284": "▁jour",
  "3285": "▁plac",
  "3286": "▁situation",
  "3287": "▁cannot",
  "3288": "work",
  "3289": "▁ach",
  "3290": "▁either",
  "3291": "τού",
  "3292": "τικό",
  "3293": "▁sometimes",
  "3294": "fully",
  "3295": "▁aí",
  "3296": "ames",
  "3297": "▁11",
  "3298": "▁europ",
  "3299": "▁sever",
  "3300": "rodu",
  "3301": "▁ust",
  "3302": "▁tip",
  "3303": "▁30",
  "3304": "▁reach",
  "3305": "▁quando",
  "3306": "πε",
  "3307": "rou",
  "3308": "▁Of",
  "3309": "▁soll",
  "3310": "olut",
  "3311": "▁regard",
  "3312": "bros",
  "3313": "▁Yes",
  "3314": "▁common",
  "3315": "gest",
  "3316": "view",
  "3317": "▁rema",
  "3318": "▁won",
  "3319": "▁viol",
  "3320": "viron",
  "3321": "▁cro",
  "3322": "▁Muito",
  "3323": "▁front",
  "3324": "▁ju",
  "3325": "isión",
  "3326": "▁bur",
  "3327": "ώρα",
  "3328": "▁são",
  "3329": "ove",
  "3330": "▁ngh",
  "3331": "▁mij",
  "3332": "▁type",
  "3333": "let",
  "3334": "idos",
  "3335": "af",
  "3336": "▁sua",
  "3337": "very",
  "3338": "▁κατα",
  "3339": "side",
  "3340": "▁Comiss",
  "3341": "▁link",
  "3342": "▁break",
  "3343": "▁Dat",
  "3344": "cent",
  "3345": "▁habe",
  "3346": "▁proced",
  "3347": "▁concern",
  "3348": "▁poder",
  "3349": "undo",
  "3350": "▁opportun",
  "3351": "ικά",
  "3352": "▁anim",
  "3353": "▁Union",
  "3354": "itte",
  "3355": "▁energy",
  "3356": "▁basically",
  "3357": "▁인",
  "3358": "iß",
  "3359": "▁forward",
  "3360": "com",
  "3361": "ican",
  "3362": "▁Ger",
  "3363": "▁langu",
  "3364": "▁consum",
  "3365": "▁ens",
  "3366": "▁comment",
  "3367": "▁nós",
  "3368": "hal",
  "3369": "▁위",
  "3370": "▁deux",
  "3371": "τικά",
  "3372": "itut",
  "3373": "▁moeten",
  "3374": "▁among",
  "3375": "▁typ",
  "3376": "rar",
  "3377": "지고",
  "3378": "▁return",
  "3379": "▁Que",
  "3380": "▁bud",
  "3381": "▁taking",
  "3382": "▁Dziękuję",
  "3383": "ück",
  "3384": "ended",
  "3385": "▁100",
  "3386": "▁fra",
  "3387": "▁pie",
  "3388": "come",
  "3389": "▁être",
  "3390": "▁Non",
  "3391": "κε",
  "3392": "head",
  "3393": "▁segu",
  "3394": "unch",
  "3395": "▁lavor",
  "3396": "γο",
  "3397": "izz",
  "3398": "icas",
  "3399": "ugh",
  "3400": "▁äh",
  "3401": "▁które",
  "3402": "▁national",
  "3403": "▁Sr",
  "3404": "βα",
  "3405": "imm",
  "3406": "▁father",
  "3407": "▁record",
  "3408": "▁strateg",
  "3409": "▁Reg",
  "3410": "ποι",
  "3411": "▁inte",
  "3412": "▁myself",
  "3413": "▁corre",
  "3414": "▁vir",
  "3415": "▁goes",
  "3416": "ences",
  "3417": "▁manag",
  "3418": "▁parl",
  "3419": "μά",
  "3420": "idas",
  "3421": "χέ",
  "3422": "aring",
  "3423": "ination",
  "3424": "ised",
  "3425": "θεί",
  "3426": "vre",
  "3427": "ability",
  "3428": "▁coop",
  "3429": "ength",
  "3430": "▁ganz",
  "3431": "▁thinking",
  "3432": "▁hacer",
  "3433": "라는",
  "3434": "ικό",
  "3435": "ày",
  "3436": "▁story",
  "3437": "▁są",
  "3438": "▁black",
  "3439": "▁buen",
  "3440": "▁These",
  "3441": "▁roz",
  "3442": "▁account",
  "3443": "▁eso",
  "3444": "rie",
  "3445": "ilar",
  "3446": "eft",
  "3447": "▁educ",
  "3448": "πόν",
  "3449": "▁sett",
  "3450": "▁mich",
  "3451": "▁ró",
  "3452": "▁spir",
  "3453": "▁여러분",
  "3454": "ived",
  "3455": "▁cover",
  "3456": "án",
  "3457": "▁quand",
  "3458": "ration",
  "3459": "owe",
  "3460": "eli",
  "3461": "▁net",
  "3462": "▁Η",
  "3463": "▁girl",
  "3464": "▁sound",
  "3465": "▁Cons",
  "3466": "▁works",
  "3467": "πή",
  "3468": "▁tom",
  "3469": "▁States",
  "3470": "ير",
  "3471": "ured",
  "3472": "합니다",
  "3473": "▁다음",
  "3474": "▁rele",
  "3475": "imi",
  "3476": "acter",
  "3477": "▁hands",
  "3478": "ows",
  "3479": "▁hom",
  "3480": "▁Not",
  "3481": "▁faut",
  "3482": "ends",
  "3483": "▁interesting",
  "3484": "▁makes",
  "3485": "▁cab",
  "3486": "gi",
  "3487": "▁unter",
  "3488": "▁zur",
  "3489": "▁quer",
  "3490": "▁May",
  "3491": "▁det",
  "3492": "ço",
  "3493": "odzi",
  "3494": "êm",
  "3495": "ona",
  "3496": "liament",
  "3497": "▁students",
  "3498": "▁ih",
  "3499": "ahr",
  "3500": "▁aquí",
  "3501": "enda",
  "3502": "ogn",
  "3503": "▁flo",
  "3504": "onte",
  "3505": "지만",
  "3506": "▁experience",
  "3507": "▁wa",
  "3508": "▁knew",
  "3509": "▁Aber",
  "3510": "▁Dan",
  "3511": "▁field",
  "3512": "▁nice",
  "3513": "▁muss",
  "3514": "▁member",
  "3515": "▁?",
  "3516": "▁있습니다",
  "3517": "▁early",
  "3518": "ρω",
  "3519": "▁single",
  "3520": "ilà",
  "3521": "▁έχει",
  "3522": "▁food",
  "3523": "▁잘",
  "3524": "▁hy",
  "3525": "▁cris",
  "3526": "éd",
  "3527": "▁avo",
  "3528": "▁event",
  "3529": "▁kill",
  "3530": "▁وال",
  "3531": "▁σημα",
  "3532": "▁close",
  "3533": "▁sum",
  "3534": "▁ang",
  "3535": "▁señor",
  "3536": "▁please",
  "3537": "ots",
  "3538": "▁leave",
  "3539": "viously",
  "3540": "いて",
  "3541": "▁particip",
  "3542": "▁minutes",
  "3543": "▁algun",
  "3544": "▁morning",
  "3545": "▁based",
  "3546": "▁king",
  "3547": "esi",
  "3548": "▁dra",
  "3549": "▁punto",
  "3550": "▁trabal",
  "3551": "▁meas",
  "3552": "osp",
  "3553": "▁elect",
  "3554": "▁nog",
  "3555": "▁poi",
  "3556": "▁white",
  "3557": "omp",
  "3558": "▁Grazie",
  "3559": "▁생각",
  "3560": "▁impact",
  "3561": "ources",
  "3562": "▁tego",
  "3563": "▁deter",
  "3564": "ites",
  "3565": "▁create",
  "3566": "σία",
  "3567": "▁local",
  "3568": "يا",
  "3569": "▁itself",
  "3570": "▁instr",
  "3571": "▁position",
  "3572": "ichtig",
  "3573": "inh",
  "3574": "itten",
  "3575": "▁beaut",
  "3576": "하게",
  "3577": "▁demand",
  "3578": "αλ",
  "3579": "▁alg",
  "3580": "ذا",
  "3581": "ploy",
  "3582": "▁공",
  "3583": "▁stra",
  "3584": "orma",
  "3585": "ότητα",
  "3586": "▁Pol",
  "3587": ",000",
  "3588": "ười",
  "3589": "▁compet",
  "3590": "right",
  "3591": "▁fine",
  "3592": "▁했",
  "3593": "isto",
  "3594": "ör",
  "3595": "にな",
  "3596": "▁lui",
  "3597": "▁países",
  "3598": "bbe",
  "3599": "▁invol",
  "3600": "▁prior",
  "3601": "▁wieder",
  "3602": "▁pain",
  "3603": "▁mass",
  "3604": "▁sam",
  "3605": "▁yourself",
  "3606": "까지",
  "3607": "다고",
  "3608": "ować",
  "3609": "haps",
  "3610": "▁cool",
  "3611": "いた",
  "3612": "itch",
  "3613": "πτ",
  "3614": "ories",
  "3615": "▁제가",
  "3616": "▁stop",
  "3617": "▁할",
  "3618": "▁element",
  "3619": "▁진",
  "3620": "▁value",
  "3621": "▁several",
  "3622": "▁couple",
  "3623": "▁relat",
  "3624": "ife",
  "3625": "▁United",
  "3626": "▁especially",
  "3627": "▁trat",
  "3628": "▁Cl",
  "3629": "oco",
  "3630": "▁gem",
  "3631": "upp",
  "3632": "▁term",
  "3633": "▁얘",
  "3634": "ρώ",
  "3635": "▁qué",
  "3636": "▁nature",
  "3637": "▁lay",
  "3638": "ster",
  "3639": "where",
  "3640": "▁cut",
  "3641": "▁mother",
  "3642": "っと",
  "3643": "▁death",
  "3644": "▁themselves",
  "3645": "▁tutti",
  "3646": "▁πολι",
  "3647": "ούμε",
  "3648": "raph",
  "3649": "ελ",
  "3650": "ssen",
  "3651": "este",
  "3652": "yt",
  "3653": "ession",
  "3654": "▁woman",
  "3655": "eter",
  "3656": "▁Eng",
  "3657": "▁needs",
  "3658": "▁share",
  "3659": "▁구",
  "3660": "▁arm",
  "3661": "ades",
  "3662": "▁λοι",
  "3663": "idence",
  "3664": "amb",
  "3665": "▁issue",
  "3666": "▁desc",
  "3667": "▁번",
  "3668": "▁16",
  "3669": "▁Mer",
  "3670": "▁company",
  "3671": "▁elle",
  "3672": "▁kun",
  "3673": "▁immer",
  "3674": "ều",
  "3675": "emplo",
  "3676": "▁στι",
  "3677": "ark",
  "3678": "▁aud",
  "3679": "▁temos",
  "3680": "heid",
  "3681": "endre",
  "3682": "▁gave",
  "3683": "▁Cont",
  "3684": "▁environ",
  "3685": "▁rad",
  "3686": "▁lu",
  "3687": "▁tal",
  "3688": "▁só",
  "3689": "▁무",
  "3690": "minist",
  "3691": "▁cust",
  "3692": "▁guess",
  "3693": "▁text",
  "3694": "▁Da",
  "3695": "▁cra",
  "3696": "▁επί",
  "3697": "▁때문",
  "3698": "▁pat",
  "3699": "▁Then",
  "3700": "▁Right",
  "3701": "▁lá",
  "3702": "▁Br",
  "3703": "▁añ",
  "3704": "▁looks",
  "3705": "ives",
  "3706": "ết",
  "3707": "ume",
  "3708": "▁div",
  "3709": "▁fort",
  "3710": "baj",
  "3711": "anti",
  "3712": "▁tenemos",
  "3713": "ization",
  "3714": "▁ago",
  "3715": "▁Des",
  "3716": "▁imag",
  "3717": "▁Alors",
  "3718": "auc",
  "3719": "▁Man",
  "3720": "▁λοιπόν",
  "3721": "ürlich",
  "3722": "▁stay",
  "3723": "▁service",
  "3724": "다는",
  "3725": "▁đã",
  "3726": "oro",
  "3727": "δο",
  "3728": "▁civ",
  "3729": "▁trong",
  "3730": "μη",
  "3731": "▁became",
  "3732": "▁Het",
  "3733": "itter",
  "3734": "▁세",
  "3735": "fin",
  "3736": "▁benef",
  "3737": "▁hund",
  "3738": "▁người",
  "3739": "outh",
  "3740": "▁approach",
  "3741": "▁natural",
  "3742": "ρία",
  "3743": "▁relations",
  "3744": "▁listen",
  "3745": "antes",
  "3746": "▁Comissão",
  "3747": "cher",
  "3748": "ged",
  "3749": "▁opin",
  "3750": "▁개",
  "3751": "▁고",
  "3752": "lex",
  "3753": "▁conv",
  "3754": "▁Gracias",
  "3755": "▁uno",
  "3756": "▁colleg",
  "3757": "▁mat",
  "3758": "▁gut",
  "3759": "▁근",
  "3760": "▁müssen",
  "3761": "▁caso",
  "3762": "ements",
  "3763": "ald",
  "3764": "▁Επι",
  "3765": "▁이거",
  "3766": "▁Θα",
  "3767": "▁relig",
  "3768": "▁individual",
  "3769": "▁political",
  "3770": "▁fore",
  "3771": "▁extra",
  "3772": "west",
  "3773": "▁everybody",
  "3774": "▁dim",
  "3775": "면서",
  "3776": "▁$",
  "3777": "▁παρα",
  "3778": "▁precis",
  "3779": "▁công",
  "3780": "▁behind",
  "3781": "▁Ευχαριστώ",
  "3782": "▁bin",
  "3783": "▁author",
  "3784": "▁someone",
  "3785": "▁struct",
  "3786": "この",
  "3787": "▁friends",
  "3788": "▁clim",
  "3789": "겠습니다",
  "3790": "▁gew",
  "3791": "▁mond",
  "3792": "▁key",
  "3793": "ある",
  "3794": "φορά",
  "3795": "▁estab",
  "3796": "ker",
  "3797": "▁ba",
  "3798": "▁problema",
  "3799": "▁redu",
  "3800": "▁phys",
  "3801": "anda",
  "3802": "▁κύρι",
  "3803": "▁impro",
  "3804": "▁further",
  "3805": "▁bank",
  "3806": "▁ways",
  "3807": "iversity",
  "3808": "τροπή",
  "3809": "ador",
  "3810": "▁소",
  "3811": "▁everyone",
  "3812": "abor",
  "3813": "soci",
  "3814": "▁Port",
  "3815": "▁Some",
  "3816": "lichen",
  "3817": "예요",
  "3818": "▁sé",
  "3819": "▁υπο",
  "3820": "▁들어",
  "3821": "ama",
  "3822": "▁applic",
  "3823": "▁coll",
  "3824": "pow",
  "3825": "ρεί",
  "3826": "▁legisl",
  "3827": "▁commiss",
  "3828": "▁wur",
  "3829": "▁third",
  "3830": "▁democ",
  "3831": "▁agre",
  "3832": "▁ground",
  "3833": "▁blo",
  "3834": "▁members",
  "3835": "▁vu",
  "3836": "pend",
  "3837": "▁하는",
  "3838": "lied",
  "3839": "▁estamos",
  "3840": "▁durch",
  "3841": "よう",
  "3842": "▁development",
  "3843": "▁solo",
  "3844": "▁fare",
  "3845": "▁resol",
  "3846": "▁17",
  "3847": "▁noss",
  "3848": "ème",
  "3849": "▁été",
  "3850": "▁crit",
  "3851": "ược",
  "3852": "itor",
  "3853": "▁tool",
  "3854": "acht",
  "3855": "▁không",
  "3856": "▁ru",
  "3857": "iera",
  "3858": "▁pues",
  "3859": "▁ur",
  "3860": "▁pick",
  "3861": "▁express",
  "3862": "▁perfect",
  "3863": "gt",
  "3864": "▁알",
  "3865": "▁계",
  "3866": "▁pesso",
  "3867": "▁issues",
  "3868": "ار",
  "3869": "ye",
  "3870": "▁usted",
  "3871": "▁heeft",
  "3872": "▁비",
  "3873": "▁đi",
  "3874": "▁너",
  "3875": "▁grande",
  "3876": "▁tur",
  "3877": "▁brought",
  "3878": "▁accord",
  "3879": "▁Pe",
  "3880": "▁amb",
  "3881": "icos",
  "3882": "▁aux",
  "3883": "hl",
  "3884": "▁model",
  "3885": "εκ",
  "3886": "0%",
  "3887": "Unione",
  "3888": "bers",
  "3889": "▁convers",
  "3890": "▁άλ",
  "3891": "fach",
  "3892": "▁million",
  "3893": "▁Ber",
  "3894": "▁영",
  "3895": "▁Was",
  "3896": "νωση",
  "3897": "ول",
  "3898": "▁Col",
  "3899": "esus",
  "3900": "▁Ze",
  "3901": "▁noi",
  "3902": "▁ش",
  "3903": "▁Herr",
  "3904": "▁pode",
  "3905": "▁cit",
  "3906": "osa",
  "3907": "▁bem",
  "3908": "▁ακ",
  "3909": "voir",
  "3910": "ential",
  "3911": "iguard",
  "3912": "ibility",
  "3913": "▁puis",
  "3914": "pping",
  "3915": "▁건",
  "3916": "▁treat",
  "3917": "▁13",
  "3918": "ified",
  "3919": "onces",
  "3920": "ίο",
  "3921": "▁avail",
  "3922": "▁κοι",
  "3923": "uring",
  "3924": "▁began",
  "3925": "ούν",
  "3926": "ín",
  "3927": "▁squ",
  "3928": "▁Então",
  "3929": "▁material",
  "3930": "▁spra",
  "3931": "ξη",
  "3932": "▁fire",
  "3933": "▁trabaj",
  "3934": "ec",
  "3935": "▁riguard",
  "3936": "▁hundred",
  "3937": "▁kunnen",
  "3938": "れて",
  "3939": "▁cosa",
  "3940": "ismo",
  "3941": "▁μπορού",
  "3942": "▁sle",
  "3943": "▁however",
  "3944": "▁han",
  "3945": "tt",
  "3946": "▁στ",
  "3947": "igo",
  "3948": "▁14",
  "3949": "uer",
  "3950": "▁agora",
  "3951": "시면",
  "3952": "ws",
  "3953": "▁points",
  "3954": "▁aspect",
  "3955": "▁table",
  "3956": "encia",
  "3957": "▁naar",
  "3958": "▁degli",
  "3959": "▁simp",
  "3960": "▁compan",
  "3961": "▁fight",
  "3962": "ches",
  "3963": "▁스",
  "3964": "ży",
  "3965": "lio",
  "3966": "▁ج",
  "3967": "▁25",
  "3968": "▁fell",
  "3969": "μβ",
  "3970": "ables",
  "3971": "ilo",
  "3972": "▁때문에",
  "3973": "▁perhaps",
  "3974": "▁chall",
  "3975": "ming",
  "3976": "day",
  "3977": "▁complet",
  "3978": "agt",
  "3979": "▁fair",
  "3980": "▁including",
  "3981": "aux",
  "3982": "γμα",
  "3983": "▁suis",
  "3984": "fl",
  "3985": "ias",
  "3986": "col",
  "3987": "▁jud",
  "3988": "▁happened",
  "3989": "isc",
  "3990": "▁được",
  "3991": "är",
  "3992": "ướ",
  "3993": "nes",
  "3994": "ley",
  "3995": "▁moi",
  "3996": "▁writ",
  "3997": "ource",
  "3998": "▁wonder",
  "3999": "ành",
  "4000": "▁opt",
  "4001": "▁continue",
  "4002": "▁spo",
  "4003": "ility",
  "4004": "▁easy",
  "4005": "enta",
  "4006": "▁towards",
  "4007": "▁mel",
  "4008": "ousand",
  "4009": "▁introdu",
  "4010": "▁hanno",
  "4011": "▁Pero",
  "4012": "ég",
  "4013": "▁rap",
  "4014": "▁Bl",
  "4015": "uth",
  "4016": "▁유",
  "4017": "▁cred",
  "4018": "▁pes",
  "4019": "▁happy",
  "4020": "▁jed",
  "4021": "▁einer",
  "4022": "▁natürlich",
  "4023": "▁entire",
  "4024": "äch",
  "4025": "▁focus",
  "4026": "▁mog",
  "4027": "ですね",
  "4028": "atic",
  "4029": "▁sir",
  "4030": "▁rich",
  "4031": "▁building",
  "4032": "▁perform",
  "4033": "iled",
  "4034": "isp",
  "4035": "▁definit",
  "4036": "▁Co",
  "4037": "▁momento",
  "4038": "zcze",
  "4039": "plic",
  "4040": "▁andere",
  "4041": "▁special",
  "4042": "urity",
  "4043": "▁total",
  "4044": "▁Επιτροπή",
  "4045": "▁rights",
  "4046": "ex",
  "4047": "osta",
  "4048": "▁mein",
  "4049": "ham",
  "4050": "▁separ",
  "4051": "azioni",
  "4052": "lie",
  "4053": "uit",
  "4054": "hod",
  "4055": "izar",
  "4056": "τέ",
  "4057": "ram",
  "4058": "▁questi",
  "4059": "ifica",
  "4060": "itting",
  "4061": "▁Ν",
  "4062": "▁debate",
  "4063": "では",
  "4064": "▁però",
  "4065": "ledge",
  "4066": "▁thousand",
  "4067": "vert",
  "4068": "ده",
  "4069": "▁Europejsk",
  "4070": "▁X",
  "4071": "▁doch",
  "4072": "▁liv",
  "4073": "wie",
  "4074": "ύτε",
  "4075": "▁Wor",
  "4076": "cing",
  "4077": "▁wil",
  "4078": "▁Ph",
  "4079": "ります",
  "4080": "▁felt",
  "4081": "ực",
  "4082": "▁στα",
  "4083": "▁address",
  "4084": "에는",
  "4085": "imy",
  "4086": "▁buy",
  "4087": "ühr",
  "4088": "▁round",
  "4089": "keit",
  "4090": "▁policy",
  "4091": "ners",
  "4092": "▁President",
  "4093": "▁history",
  "4094": "▁liter",
  "4095": "▁rid",
  "4096": "▁với",
  "4097": "▁content",
  "4098": "▁tempo",
  "4099": "▁wij",
  "4100": "▁będzie",
  "4101": "now",
  "4102": "▁fol",
  "4103": "▁subject",
  "4104": "▁tax",
  "4105": "▁capac",
  "4106": "▁방",
  "4107": "▁geht",
  "4108": "▁relativ",
  "4109": "고요",
  "4110": "chaft",
  "4111": "▁wrong",
  "4112": "▁gone",
  "4113": "wnie",
  "4114": "▁subs",
  "4115": "klich",
  "4116": "▁sistema",
  "4117": "▁ready",
  "4118": "▁habl",
  "4119": "ário",
  "4120": "▁mad",
  "4121": "ires",
  "4122": "▁modo",
  "4123": "δια",
  "4124": "▁With",
  "4125": "▁gla",
  "4126": "ível",
  "4127": "▁sho",
  "4128": "▁cop",
  "4129": "πω",
  "4130": "isa",
  "4131": "ście",
  "4132": "▁waar",
  "4133": "▁ξ",
  "4134": "▁esper",
  "4135": "▁function",
  "4136": "▁mentioned",
  "4137": "▁많이",
  "4138": "▁arg",
  "4139": "▁dich",
  "4140": "pu",
  "4141": "▁cli",
  "4142": "▁self",
  "4143": "▁Maar",
  "4144": "▁αυτά",
  "4145": "▁wię",
  "4146": "▁region",
  "4147": "▁implement",
  "4148": "los",
  "4149": "▁Im",
  "4150": "▁dob",
  "4151": "▁fast",
  "4152": "▁ri",
  "4153": "▁garant",
  "4154": "ules",
  "4155": "▁πά",
  "4156": "▁personal",
  "4157": "▁moet",
  "4158": "▁Vo",
  "4159": "▁dice",
  "4160": "دا",
  "4161": "▁spr",
  "4162": "icial",
  "4163": "▁onder",
  "4164": "▁두",
  "4165": "sto",
  "4166": "▁같은",
  "4167": "▁stato",
  "4168": "▁bom",
  "4169": "enza",
  "4170": "▁seu",
  "4171": "itional",
  "4172": "دي",
  "4173": "cion",
  "4174": "ena",
  "4175": "▁ill",
  "4176": "pond",
  "4177": "aucoup",
  "4178": "▁similar",
  "4179": "▁caus",
  "4180": "ότε",
  "4181": "▁soft",
  "4182": "▁adop",
  "4183": "▁على",
  "4184": "ugar",
  "4185": "▁assim",
  "4186": "▁action",
  "4187": "▁ese",
  "4188": "▁tanto",
  "4189": "ener",
  "4190": "acy",
  "4191": "▁Ένωση",
  "4192": "▁character",
  "4193": "lijk",
  "4194": "▁fem",
  "4195": "▁conte",
  "4196": "ran",
  "4197": "▁dieser",
  "4198": "▁spirit",
  "4199": "▁amount",
  "4200": "▁ones",
  "4201": "zę",
  "4202": "▁bill",
  "4203": "▁sí",
  "4204": "▁extre",
  "4205": "▁tô",
  "4206": "▁attack",
  "4207": "▁cuando",
  "4208": "▁ped",
  "4209": "▁algo",
  "4210": "▁einfach",
  "4211": "▁specific",
  "4212": "hi",
  "4213": "▁ol",
  "4214": "▁available",
  "4215": "θη",
  "4216": "medi",
  "4217": "▁zwe",
  "4218": "νέ",
  "4219": "▁ζ",
  "4220": "▁environment",
  "4221": "▁네",
  "4222": "▁log",
  "4223": "ري",
  "4224": "▁ban",
  "4225": "har",
  "4226": "ερ",
  "4227": "▁language",
  "4228": "▁الله",
  "4229": "acional",
  "4230": "▁Ein",
  "4231": "inha",
  "4232": "lam",
  "4233": "inda",
  "4234": "tes",
  "4235": "▁therefore",
  "4236": "iful",
  "4237": "▁nella",
  "4238": "▁vais",
  "4239": "けど",
  "4240": "pen",
  "4241": "▁ما",
  "4242": "▁ś",
  "4243": "▁conta",
  "4244": "▁einem",
  "4245": "▁recogn",
  "4246": "▁din",
  "4247": "adores",
  "4248": "ordin",
  "4249": "entlich",
  "4250": "though",
  "4251": "▁tutaj",
  "4252": "▁deep",
  "4253": "▁decir",
  "4254": "▁내가",
  "4255": "ney",
  "4256": "▁autor",
  "4257": "▁sac",
  "4258": "▁poor",
  "4259": "▁ord",
  "4260": "anger",
  "4261": "▁exactly",
  "4262": "ienen",
  "4263": "▁pré",
  "4264": "▁spre",
  "4265": "▁sold",
  "4266": "▁fatto",
  "4267": "▁لا",
  "4268": "▁apr",
  "4269": "▁global",
  "4270": "ium",
  "4271": "▁pict",
  "4272": "kow",
  "4273": "rem",
  "4274": "ware",
  "4275": "▁normal",
  "4276": "στη",
  "4277": "▁dead",
  "4278": "▁wirklich",
  "4279": "▁sud",
  "4280": "▁bal",
  "4281": "▁Vamos",
  "4282": "▁tous",
  "4283": "▁grou",
  "4284": "▁συνε",
  "4285": "ittee",
  "4286": "▁ahead",
  "4287": "▁nad",
  "4288": "▁fer",
  "4289": "▁sia",
  "4290": "▁deta",
  "4291": "▁cause",
  "4292": "▁beaucoup",
  "4293": "rage",
  "4294": "▁essa",
  "4295": "▁원",
  "4296": "▁Nor",
  "4297": "eds",
  "4298": "▁puede",
  "4299": "▁tas",
  "4300": "▁months",
  "4301": "▁custom",
  "4302": "▁năm",
  "4303": "▁church",
  "4304": "▁somebody",
  "4305": "▁lost",
  "4306": "▁zou",
  "4307": "▁accept",
  "4308": "▁stre",
  "4309": "σο",
  "4310": "▁signific",
  "4311": "anza",
  "4312": "atie",
  "4313": "▁mach",
  "4314": "▁areas",
  "4315": "▁sempre",
  "4316": "▁Bo",
  "4317": "▁turned",
  "4318": "▁interess",
  "4319": "▁선",
  "4320": "▁integr",
  "4321": "▁mens",
  "4322": "▁근데",
  "4323": "heit",
  "4324": "vere",
  "4325": "▁coun",
  "4326": "▁isn",
  "4327": "ương",
  "4328": "roll",
  "4329": "▁sugg",
  "4330": "ικο",
  "4331": "uego",
  "4332": "▁seemed",
  "4333": "orts",
  "4334": "mon",
  "4335": "▁news",
  "4336": "mes",
  "4337": "▁arr",
  "4338": "χε",
  "4339": "ativa",
  "4340": "▁où",
  "4341": "rait",
  "4342": "▁indic",
  "4343": "gal",
  "4344": "▁weil",
  "4345": "▁Les",
  "4346": "▁apro",
  "4347": "ường",
  "4348": "▁Unión",
  "4349": "▁Komm",
  "4350": "fr",
  "4351": "▁ment",
  "4352": "elen",
  "4353": "と思",
  "4354": "ula",
  "4355": "maz",
  "4356": "leich",
  "4357": "quer",
  "4358": "▁informa",
  "4359": "▁sun",
  "4360": "δη",
  "4361": "▁War",
  "4362": "unto",
  "4363": "▁German",
  "4364": "▁outside",
  "4365": "ored",
  "4366": "▁ric",
  "4367": "cun",
  "4368": "▁However",
  "4369": "▁wszyst",
  "4370": "iger",
  "4371": "▁etc",
  "4372": "▁services",
  "4373": "▁US",
  "4374": "▁하고",
  "4375": "▁ton",
  "4376": "▁Ro",
  "4377": "▁force",
  "4378": "gend",
  "4379": "▁heel",
  "4380": "sta",
  "4381": "ched",
  "4382": "▁έχουν",
  "4383": "▁δικ",
  "4384": "▁μετα",
  "4385": "ól",
  "4386": "▁vraiment",
  "4387": "▁Here",
  "4388": "▁europé",
  "4389": "▁esse",
  "4390": "▁suggest",
  "4391": "▁việ",
  "4392": "▁Αυτ",
  "4393": "▁sagen",
  "4394": "▁wish",
  "4395": "▁seeing",
  "4396": "▁chodzi",
  "4397": "τικέ",
  "4398": "▁prime",
  "4399": "▁voice",
  "4400": "eth",
  "4401": "▁clos",
  "4402": "▁Jesus",
  "4403": "umento",
  "4404": "ίνει",
  "4405": "▁União",
  "4406": "そう",
  "4407": "ify",
  "4408": "▁κάν",
  "4409": "▁Δεν",
  "4410": "▁sym",
  "4411": "ases",
  "4412": "んな",
  "4413": "φα",
  "4414": "▁Ho",
  "4415": "▁document",
  "4416": "▁living",
  "4417": "δή",
  "4418": "▁돼",
  "4419": "▁disp",
  "4420": "▁machen",
  "4421": "▁John",
  "4422": "▁gracias",
  "4423": "τω",
  "4424": "▁dark",
  "4425": "▁expla",
  "4426": "bed",
  "4427": "▁foot",
  "4428": "dom",
  "4429": "▁σημαν",
  "4430": "ững",
  "4431": "▁swe",
  "4432": "▁,",
  "4433": "▁tit",
  "4434": "▁Yo",
  "4435": "ári",
  "4436": "ست",
  "4437": "όν",
  "4438": "▁신",
  "4439": "▁Συ",
  "4440": "▁dla",
  "4441": "▁Europeia",
  "4442": "▁difer",
  "4443": "▁wasn",
  "4444": "kommen",
  "4445": "eremos",
  "4446": "▁problems",
  "4447": "ασία",
  "4448": "▁이게",
  "4449": "γή",
  "4450": "▁nada",
  "4451": "▁cui",
  "4452": "▁Sec",
  "4453": "joy",
  "4454": "▁following",
  "4455": "▁nar",
  "4456": "iddle",
  "4457": "ead",
  "4458": "▁learning",
  "4459": "▁town",
  "4460": "agn",
  "4461": "▁cy",
  "4462": "▁longer",
  "4463": "▁podemos",
  "4464": "▁capital",
  "4465": "▁weiter",
  "4466": "▁θέμα",
  "4467": "▁figure",
  "4468": "ối",
  "4469": "ffen",
  "4470": "▁estas",
  "4471": "▁Der",
  "4472": "ây",
  "4473": "▁seems",
  "4474": "▁membri",
  "4475": "acji",
  "4476": "▁tipo",
  "4477": "▁media",
  "4478": "łos",
  "4479": "▁camp",
  "4480": "zt",
  "4481": "▁hol",
  "4482": "ần",
  "4483": "enty",
  "4484": "πη",
  "4485": "ią",
  "4486": "▁employ",
  "4487": "▁Ste",
  "4488": "emp",
  "4489": "▁earth",
  "4490": "aug",
  "4491": "▁الت",
  "4492": "▁flow",
  "4493": "▁ils",
  "4494": "▁lugar",
  "4495": "▁거예요",
  "4496": "υνα",
  "4497": "▁살",
  "4498": "xim",
  "4499": "▁determin",
  "4500": "▁الع",
  "4501": "▁υπάρχει",
  "4502": "▁above",
  "4503": "icle",
  "4504": "▁Tod",
  "4505": "vant",
  "4506": "▁mand",
  "4507": "▁sar",
  "4508": "bt",
  "4509": "▁ahora",
  "4510": "▁creo",
  "4511": "nej",
  "4512": "▁Parliament",
  "4513": "▁inside",
  "4514": "▁road",
  "4515": "▁instead",
  "4516": "φων",
  "4517": "oph",
  "4518": "▁stru",
  "4519": "usion",
  "4520": "▁enter",
  "4521": "rouw",
  "4522": "lier",
  "4523": "▁anc",
  "4524": "▁europeo",
  "4525": "▁ej",
  "4526": "irst",
  "4527": "▁pull",
  "4528": "▁code",
  "4529": "▁moż",
  "4530": "iding",
  "4531": "▁kra",
  "4532": "▁command",
  "4533": "▁cross",
  "4534": "action",
  "4535": "chan",
  "4536": "ift",
  "4537": "▁estar",
  "4538": "▁haven",
  "4539": "▁riguarda",
  "4540": "▁pró",
  "4541": "ので",
  "4542": "▁method",
  "4543": "▁esp",
  "4544": "▁도",
  "4545": "▁various",
  "4546": "▁indeed",
  "4547": "▁Russ",
  "4548": "▁chose",
  "4549": "▁것이",
  "4550": "otros",
  "4551": "pper",
  "4552": "▁Why",
  "4553": "▁lik",
  "4554": "▁我",
  "4555": "لي",
  "4556": "▁1,",
  "4557": "ycz",
  "4558": "▁alles",
  "4559": "▁성",
  "4560": "fen",
  "4561": "▁bott",
  "4562": "▁tar",
  "4563": "utt",
  "4564": "▁click",
  "4565": "▁Ha",
  "4566": "▁eight",
  "4567": "rim",
  "4568": "▁woll",
  "4569": "▁2020",
  "4570": "▁study",
  "4571": "▁absolut",
  "4572": "▁những",
  "4573": "▁regul",
  "4574": "fort",
  "4575": "ức",
  "4576": "▁beautiful",
  "4577": "ively",
  "4578": "▁dispos",
  "4579": "적으로",
  "4580": "▁objet",
  "4581": "▁hours",
  "4582": "▁affect",
  "4583": "▁Mo",
  "4584": "▁pack",
  "4585": "ょう",
  "4586": "▁199",
  "4587": "▁attention",
  "4588": "ograph",
  "4589": "▁legal",
  "4590": "ności",
  "4591": "iện",
  "4592": "ره",
  "4593": "lig",
  "4594": "▁===",
  "4595": "▁vote",
  "4596": "zd",
  "4597": "▁kl",
  "4598": "▁θε",
  "4599": "cious",
  "4600": "▁어떻",
  "4601": "▁Cent",
  "4602": "▁win",
  "4603": "1,",
  "4604": "2.",
  "4605": "▁definitely",
  "4606": "▁wsp",
  "4607": "▁eben",
  "4608": "itted",
  "4609": "ala",
  "4610": "1.",
  "4611": "bro",
  "4612": "▁favore",
  "4613": "2,",
  "4614": "iu",
  "4615": "▁그냥",
  "4616": "ải",
  "4617": "▁deg",
  "4618": "▁pag",
  "4619": "nov",
  "4620": "▁boy",
  "4621": "igher",
  "4622": "▁oc",
  "4623": "▁ep",
  "4624": "▁política",
  "4625": "▁role",
  "4626": "ßen",
  "4627": "▁uw",
  "4628": "▁fundament",
  "4629": "▁kan",
  "4630": "▁comput",
  "4631": "▁enjoy",
  "4632": "▁provide",
  "4633": "son",
  "4634": "▁hit",
  "4635": "▁usually",
  "4636": "▁publ",
  "4637": "▁running",
  "4638": "ταση",
  "4639": "θή",
  "4640": "▁termin",
  "4641": "▁draw",
  "4642": "▁σύ",
  "4643": "yw",
  "4644": "▁ult",
  "4645": "▁seven",
  "4646": "▁연",
  "4647": "car",
  "4648": "ency",
  "4649": "▁save",
  "4650": "▁동",
  "4651": "άρ",
  "4652": "▁write",
  "4653": "unk",
  "4654": "▁ren",
  "4655": "σουν",
  "4656": "▁coleg",
  "4657": "▁Part",
  "4658": "▁green",
  "4659": "▁online",
  "4660": "▁meer",
  "4661": "▁knowledge",
  "4662": "▁beginning",
  "4663": "▁tend",
  "4664": "wnież",
  "4665": "▁communic",
  "4666": "hmen",
  "4667": "▁ses",
  "4668": "eda",
  "4669": "에요",
  "4670": "▁κυρ",
  "4671": "▁물",
  "4672": "▁desde",
  "4673": "▁dobbiamo",
  "4674": "iam",
  "4675": "ội",
  "4676": "ονται",
  "4677": "▁civil",
  "4678": "▁Porque",
  "4679": "aire",
  "4680": "これ",
  "4681": "▁opportunity",
  "4682": "▁contain",
  "4683": "▁sector",
  "4684": "▁prés",
  "4685": "じゃ",
  "4686": "▁fix",
  "4687": "▁esa",
  "4688": "▁möchte",
  "4689": "▁như",
  "4690": "▁international",
  "4691": "rict",
  "4692": "ogo",
  "4693": "▁autom",
  "4694": "▁associ",
  "4695": "▁어떻게",
  "4696": "istic",
  "4697": "▁profess",
  "4698": "▁crisis",
  "4699": "▁Nous",
  "4700": "▁미",
  "4701": "bert",
  "4702": "んだ",
  "4703": "tu",
  "4704": "▁page",
  "4705": "voli",
  "4706": "▁whom",
  "4707": "▁held",
  "4708": "▁quello",
  "4709": "▁meeting",
  "4710": "▁box",
  "4711": "▁agric",
  "4712": "ún",
  "4713": "▁slow",
  "4714": "▁Aust",
  "4715": "ança",
  "4716": "itude",
  "4717": "νων",
  "4718": "ομ",
  "4719": "▁ing",
  "4720": "▁pros",
  "4721": "▁equal",
  "4722": "▁dot",
  "4723": "fo",
  "4724": "▁mów",
  "4725": "▁Fin",
  "4726": "▁progress",
  "4727": "▁Mad",
  "4728": "uk",
  "4729": "▁administ",
  "4730": "▁Β",
  "4731": "▁consegu",
  "4732": "▁cooper",
  "4733": "ijd",
  "4734": "▁except",
  "4735": "▁feet",
  "4736": "hand",
  "4737": "do",
  "4738": "glich",
  "4739": "▁American",
  "4740": "śli",
  "4741": "اب",
  "4742": "book",
  "4743": "▁문",
  "4744": "γγ",
  "4745": "▁happens",
  "4746": "▁Ό",
  "4747": "που",
  "4748": "▁divers",
  "4749": "▁trava",
  "4750": "▁menos",
  "4751": "▁concept",
  "4752": "▁todas",
  "4753": "▁chann",
  "4754": "beit",
  "4755": "▁higher",
  "4756": "▁sorry",
  "4757": "ened",
  "4758": "▁milit",
  "4759": "arily",
  "4760": "▁así",
  "4761": "▁Are",
  "4762": "▁để",
  "4763": "ince",
  "4764": "ffe",
  "4765": "itz",
  "4766": "▁West",
  "4767": "over",
  "4768": "▁education",
  "4769": "uti",
  "4770": "ちゃ",
  "4771": "angen",
  "4772": "▁plat",
  "4773": "▁certainly",
  "4774": "▁kom",
  "4775": "▁color",
  "4776": "▁goed",
  "4777": "ρου",
  "4778": "leicht",
  "4779": "ίου",
  "4780": "▁그러면",
  "4781": "▁gent",
  "4782": "▁올",
  "4783": "band",
  "4784": "▁notre",
  "4785": "lag",
  "4786": "▁Med",
  "4787": "▁systems",
  "4788": "▁정도",
  "4789": "▁ici",
  "4790": "▁1.",
  "4791": "abe",
  "4792": "▁cell",
  "4793": "لم",
  "4794": "▁gets",
  "4795": "▁imm",
  "4796": "▁obviously",
  "4797": "▁hour",
  "4798": "▁Sy",
  "4799": "▁heav",
  "4800": "▁led",
  "4801": "▁Intern",
  "4802": "ceed",
  "4803": "ικέ",
  "4804": "▁Parlament",
  "4805": "ían",
  "4806": "▁Υ",
  "4807": "▁państ",
  "4808": "nal",
  "4809": "uerd",
  "4810": "▁عن",
  "4811": "▁disco",
  "4812": "でも",
  "4813": "nego",
  "4814": "empt",
  "4815": "▁financi",
  "4816": "izione",
  "4817": "▁voy",
  "4818": "emente",
  "4819": "▁trade",
  "4820": "▁받",
  "4821": "was",
  "4822": "▁wife",
  "4823": "δώ",
  "4824": "▁fill",
  "4825": "▁relationship",
  "4826": "dy",
  "4827": "▁ر",
  "4828": "▁Το",
  "4829": "assen",
  "4830": "▁بال",
  "4831": "▁encore",
  "4832": "oses",
  "4833": "▁mic",
  "4834": "▁questão",
  "4835": "ước",
  "4836": "▁nun",
  "4837": "▁Comisión",
  "4838": "들을",
  "4839": "هم",
  "4840": "▁rock",
  "4841": "▁ko",
  "4842": "cji",
  "4843": "▁quickly",
  "4844": "▁–",
  "4845": "vole",
  "4846": "▁wall",
  "4847": "▁possibil",
  "4848": "ators",
  "4849": "▁age",
  "4850": "ną",
  "4851": "▁assist",
  "4852": "face",
  "4853": "cies",
  "4854": "▁Su",
  "4855": "rer",
  "4856": "▁관",
  "4857": "▁truth",
  "4858": "▁digital",
  "4859": "▁Ser",
  "4860": "oint",
  "4861": "ises",
  "4862": "sche",
  "4863": "▁leur",
  "4864": "▁può",
  "4865": "▁nego",
  "4866": "▁meu",
  "4867": "▁Ter",
  "4868": "▁neces",
  "4869": "rze",
  "4870": "▁sudden",
  "4871": "nos",
  "4872": "▁어떤",
  "4873": "다가",
  "4874": "μι",
  "4875": "eln",
  "4876": "▁Bar",
  "4877": "▁tema",
  "4878": "gl",
  "4879": "▁temps",
  "4880": "oso",
  "4881": "▁giving",
  "4882": "▁gan",
  "4883": "▁gas",
  "4884": "▁becom",
  "4885": "▁economic",
  "4886": "inho",
  "4887": "들은",
  "4888": "für",
  "4889": "▁modern",
  "4890": "▁Rep",
  "4891": "▁él",
  "4892": "elling",
  "4893": "▁prima",
  "4894": "▁By",
  "4895": "으면",
  "4896": "▁Europese",
  "4897": "▁society",
  "4898": "▁actual",
  "4899": "▁cru",
  "4900": "iting",
  "4901": "▁citiz",
  "4902": "▁commer",
  "4903": "osten",
  "4904": "▁últ",
  "4905": "▁다음에",
  "4906": "▁mundo",
  "4907": "▁tour",
  "4908": "▁tej",
  "4909": "▁αυ",
  "4910": "▁stati",
  "4911": "▁investig",
  "4912": "▁budget",
  "4913": "των",
  "4914": "light",
  "4915": "▁ful",
  "4916": "▁bil",
  "4917": "ival",
  "4918": "▁queste",
  "4919": "enne",
  "4920": "▁cri",
  "4921": "▁cin",
  "4922": "▁independ",
  "4923": "▁tras",
  "4924": "eks",
  "4925": "μαστε",
  "4926": "ział",
  "4927": "▁alone",
  "4928": "▁board",
  "4929": "ensive",
  "4930": "▁hot",
  "4931": "▁الح",
  "4932": "attle",
  "4933": "ró",
  "4934": "▁engine",
  "4935": "▁security",
  "4936": "νή",
  "4937": "▁발",
  "4938": "était",
  "4939": "isse",
  "4940": "▁search",
  "4941": "▁경우",
  "4942": "▁실",
  "4943": "ład",
  "4944": "▁sulla",
  "4945": "▁wurde",
  "4946": "▁current",
  "4947": "lect",
  "4948": "▁Quindi",
  "4949": "▁takes",
  "4950": "▁century",
  "4951": "bur",
  "4952": "▁specif",
  "4953": "▁descri",
  "4954": "▁Mit",
  "4955": "ận",
  "4956": "▁floor",
  "4957": "▁bez",
  "4958": "tr",
  "4959": "▁recomm",
  "4960": "▁również",
  "4961": "▁Ant",
  "4962": "▁あ",
  "4963": "▁50",
  "4964": "▁Brit",
  "4965": "▁instrument",
  "4966": "ification",
  "4967": "▁tener",
  "4968": "▁technology",
  "4969": "▁companies",
  "4970": "inten",
  "4971": "▁standard",
  "4972": "▁doll",
  "4973": "ingu",
  "4974": "▁avait",
  "4975": "rop",
  "4976": "▁συζ",
  "4977": "ops",
  "4978": "▁cat",
  "4979": "▁wid",
  "4980": "▁built",
  "4981": "▁soul",
  "4982": "▁aos",
  "4983": "asing",
  "4984": "▁agree",
  "4985": "▁First",
  "4986": "▁created",
  "4987": "▁faz",
  "4988": "その",
  "4989": "▁talked",
  "4990": "jour",
  "4991": "세요",
  "4992": "itution",
  "4993": "▁خ",
  "4994": "τηση",
  "4995": "▁science",
  "4996": "▁też",
  "4997": "▁mejor",
  "4998": "▁sei",
  "4999": "▁mont",
  "5000": "ías",
  "5001": "▁groups",
  "5002": "ίω",
  "5003": "▁λό",
  "5004": "aster",
  "5005": "▁petit",
  "5006": "order",
  "5007": "▁Dus",
  "5008": "▁못",
  "5009": "▁얘기",
  "5010": "▁걸",
  "5011": "▁Fe",
  "5012": "▁paper",
  "5013": "▁adm",
  "5014": "àn",
  "5015": "▁China",
  "5016": "antly",
  "5017": "▁versch",
  "5018": "ίνεται",
  "5019": "ielen",
  "5020": "れる",
  "5021": "▁kle",
  "5022": "いい",
  "5023": "بي",
  "5024": "org",
  "5025": "bia",
  "5026": "▁include",
  "5027": "wod",
  "5028": "▁interven",
  "5029": "ün",
  "5030": "▁nue",
  "5031": "▁bả",
  "5032": "▁moving",
  "5033": "ição",
  "5034": "▁ó",
  "5035": "▁Mus",
  "5036": "5.",
  "5037": "ammen",
  "5038": "▁toda",
  "5039": "▁hur",
  "5040": "ivos",
  "5041": "isf",
  "5042": "atori",
  "5043": "▁path",
  "5044": "▁empres",
  "5045": "▁vie",
  "5046": "▁hers",
  "5047": "▁cases",
  "5048": "ações",
  "5049": "▁denn",
  "5050": "5,",
  "5051": "▁parece",
  "5052": "▁który",
  "5053": "▁correct",
  "5054": "▁population",
  "5055": "▁fois",
  "5056": "uments",
  "5057": "ić",
  "5058": "▁lady",
  "5059": "▁eig",
  "5060": "のは",
  "5061": "▁obser",
  "5062": "▁star",
  "5063": "▁send",
  "5064": "거든",
  "5065": "▁particularly",
  "5066": "iser",
  "5067": "ματο",
  "5068": "▁était",
  "5069": "▁prepar",
  "5070": "▁proposta",
  "5071": "3,",
  "5072": "▁rif",
  "5073": "▁risk",
  "5074": "▁music",
  "5075": "んで",
  "5076": "μή",
  "5077": "▁están",
  "5078": ".\"",
  "5079": "▁nation",
  "5080": "▁Merci",
  "5081": "ruction",
  "5082": "σκ",
  "5083": "▁san",
  "5084": "▁sla",
  "5085": "ieur",
  "5086": "▁phil",
  "5087": "essa",
  "5088": "▁worth",
  "5089": "ητή",
  "5090": "▁loro",
  "5091": "▁below",
  "5092": "▁pense",
  "5093": "▁damit",
  "5094": "▁achie",
  "5095": "됩니다",
  "5096": "▁Tur",
  "5097": "لك",
  "5098": "hes",
  "5099": "ciones",
  "5100": "▁sex",
  "5101": "▁Gu",
  "5102": "▁-",
  "5103": "▁initi",
  "5104": "▁μη",
  "5105": "▁som",
  "5106": "▁paesi",
  "5107": "▁immedi",
  "5108": "▁وا",
  "5109": "▁sig",
  "5110": "가지고",
  "5111": "▁resources",
  "5112": "▁feeling",
  "5113": "▁lab",
  "5114": "vid",
  "5115": "▁late",
  "5116": "▁chance",
  "5117": "▁αντι",
  "5118": "niej",
  "5119": "▁alter",
  "5120": "▁vida",
  "5121": "▁deze",
  "5122": "▁condu",
  "5123": "thern",
  "5124": "▁happening",
  "5125": "ούλ",
  "5126": "▁simply",
  "5127": "▁Mal",
  "5128": "liche",
  "5129": "▁cand",
  "5130": "▁lavoro",
  "5131": "▁sust",
  "5132": "iar",
  "5133": "▁Coun",
  "5134": "▁ideas",
  "5135": "▁bisog",
  "5136": "▁scient",
  "5137": "▁gel",
  "5138": "ians",
  "5139": "▁Act",
  "5140": "▁solid",
  "5141": "▁Ten",
  "5142": "▁24",
  "5143": "▁tried",
  "5144": "▁Fl",
  "5145": "▁dear",
  "5146": "▁chap",
  "5147": "▁quar",
  "5148": "iner",
  "5149": "▁select",
  "5150": "▁belang",
  "5151": "éc",
  "5152": "▁whose",
  "5153": "▁huge",
  "5154": "▁ص",
  "5155": "▁wür",
  "5156": "▁pregun",
  "5157": "▁nou",
  "5158": "etic",
  "5159": "▁via",
  "5160": "▁ved",
  "5161": "▁secret",
  "5162": "▁απ",
  "5163": "teen",
  "5164": "▁party",
  "5165": "verse",
  "5166": "▁parts",
  "5167": "▁plant",
  "5168": "▁stri",
  "5169": "▁source",
  "5170": "▁Είναι",
  "5171": "▁avez",
  "5172": "▁avoir",
  "5173": "▁minute",
  "5174": "ουλ",
  "5175": "▁surpr",
  "5176": "▁miem",
  "5177": "▁webs",
  "5178": "niczą",
  "5179": "▁Every",
  "5180": "▁thus",
  "5181": "▁trust",
  "5182": "▁αφορά",
  "5183": "▁involved",
  "5184": "vil",
  "5185": "▁tudo",
  "5186": "ggi",
  "5187": "▁đị",
  "5188": "δε",
  "5189": "▁passed",
  "5190": "▁amend",
  "5191": "▁mur",
  "5192": "▁ship",
  "5193": "▁già",
  "5194": "▁changes",
  "5195": "▁오늘",
  "5196": "れた",
  "5197": "▁độ",
  "5198": "▁đến",
  "5199": "▁dru",
  "5200": "▁distrib",
  "5201": "oria",
  "5202": "▁μεγ",
  "5203": "pra",
  "5204": "üt",
  "5205": "▁Mens",
  "5206": "▁sit",
  "5207": "▁estos",
  "5208": "▁votre",
  "5209": "ispiel",
  "5210": "▁dafür",
  "5211": "▁jus",
  "5212": "▁worked",
  "5213": "▁complex",
  "5214": "▁industry",
  "5215": "▁mrs",
  "5216": "▁lord",
  "5217": "▁γιατί",
  "5218": "len",
  "5219": "▁czł",
  "5220": "▁jur",
  "5221": "yer",
  "5222": "しい",
  "5223": "부터",
  "5224": "▁CO",
  "5225": "pose",
  "5226": "λω",
  "5227": "elles",
  "5228": "▁engag",
  "5229": "▁cha",
  "5230": "▁되는",
  "5231": "▁gives",
  "5232": "ological",
  "5233": "▁Sc",
  "5234": "ξει",
  "5235": "ivi",
  "5236": "▁fear",
  "5237": "▁watching",
  "5238": "wodniczą",
  "5239": "▁keine",
  "5240": "isation",
  "5241": "▁tienen",
  "5242": "ills",
  "5243": "▁id",
  "5244": "▁مع",
  "5245": "iction",
  "5246": "3.",
  "5247": "▁Inst",
  "5248": "▁왜",
  "5249": "▁wszystk",
  "5250": "▁guard",
  "5251": "▁nhi",
  "5252": "íamos",
  "5253": "▁University",
  "5254": "auf",
  "5255": "▁ec",
  "5256": "ging",
  "5257": "ál",
  "5258": "▁cada",
  "5259": "igt",
  "5260": "var",
  "5261": "とか",
  "5262": "▁ball",
  "5263": "▁completely",
  "5264": "óm",
  "5265": "qui",
  "5266": "rist",
  "5267": "ίζω",
  "5268": "▁poco",
  "5269": "▁strength",
  "5270": "▁difference",
  "5271": "▁μου",
  "5272": "ork",
  "5273": "ests",
  "5274": "▁arch",
  "5275": "unque",
  "5276": "▁diesem",
  "5277": "▁waren",
  "5278": "▁estão",
  "5279": "▁practice",
  "5280": "▁blue",
  "5281": "▁remo",
  "5282": "▁cast",
  "5283": "▁series",
  "5284": "▁written",
  "5285": "▁limit",
  "5286": "inen",
  "5287": "でき",
  "5288": "▁dog",
  "5289": "▁너무",
  "5290": "usammen",
  "5291": "erem",
  "5292": "▁mucho",
  "5293": "▁His",
  "5294": "▁io",
  "5295": "▁europea",
  "5296": "▁rapid",
  "5297": "▁διά",
  "5298": "▁aver",
  "5299": "▁mechan",
  "5300": "▁piece",
  "5301": "▁맞",
  "5302": "▁subst",
  "5303": "▁Dep",
  "5304": "chten",
  "5305": "▁wouldn",
  "5306": "ande",
  "5307": "▁Pan",
  "5308": "▁ainda",
  "5309": "aking",
  "5310": "▁đó",
  "5311": "κα",
  "5312": "▁acuerd",
  "5313": "icar",
  "5314": "▁finally",
  "5315": "inge",
  "5316": "▁의",
  "5317": "▁avere",
  "5318": "amenti",
  "5319": "eless",
  "5320": "erson",
  "5321": "yond",
  "5322": "▁grad",
  "5323": "πολογ",
  "5324": "▁futuro",
  "5325": "▁president",
  "5326": "▁τέ",
  "5327": "tare",
  "5328": "onse",
  "5329": "▁confl",
  "5330": "nde",
  "5331": "▁welcome",
  "5332": "▁만들",
  "5333": "▁leav",
  "5334": "▁concent",
  "5335": "▁tun",
  "5336": "τεύ",
  "5337": "▁perspect",
  "5338": "▁być",
  "5339": "▁private",
  "5340": "▁μπορεί",
  "5341": "▁hemos",
  "5342": "▁claim",
  "5343": "▁về",
  "5344": "▁hem",
  "5345": "▁드",
  "5346": "▁original",
  "5347": "▁broad",
  "5348": "bon",
  "5349": "μού",
  "5350": "▁needed",
  "5351": "▁web",
  "5352": "uur",
  "5353": "▁Alright",
  "5354": "cking",
  "5355": "war",
  "5356": "▁bueno",
  "5357": "bru",
  "5358": "▁irgend",
  "5359": "▁direction",
  "5360": "▁prod",
  "5361": "aught",
  "5362": "▁Sim",
  "5363": "▁peace",
  "5364": "rod",
  "5365": "ということ",
  "5366": "▁algum",
  "5367": "▁cry",
  "5368": "에게",
  "5369": "▁necessary",
  "5370": "▁quant",
  "5371": "μω",
  "5372": "uso",
  "5373": "νοβ",
  "5374": "ension",
  "5375": "▁dus",
  "5376": "▁rob",
  "5377": "▁isto",
  "5378": "▁multip",
  "5379": "▁mesmo",
  "5380": "▁Council",
  "5381": "erc",
  "5382": "▁ι",
  "5383": "wozd",
  "5384": "powied",
  "5385": "gra",
  "5386": "ηση",
  "5387": "▁frame",
  "5388": "▁spraw",
  "5389": "ính",
  "5390": "▁experien",
  "5391": "▁Vous",
  "5392": "ucht",
  "5393": "▁ά",
  "5394": "▁positive",
  "5395": "▁antes",
  "5396": "▁transport",
  "5397": "▁tutto",
  "5398": "8,",
  "5399": "▁serious",
  "5400": "▁hop",
  "5401": "▁gesagt",
  "5402": "▁ons",
  "5403": "▁ela",
  "5404": "▁appear",
  "5405": "▁lives",
  "5406": "▁Aus",
  "5407": "▁note",
  "5408": "▁wordt",
  "5409": "σεων",
  "5410": "▁terror",
  "5411": "▁zich",
  "5412": "▁Cor",
  "5413": "▁geh",
  "5414": "aby",
  "5415": "▁ast",
  "5416": "▁vict",
  "5417": "▁faith",
  "5418": "▁komis",
  "5419": "ander",
  "5420": "▁obrigada",
  "5421": "▁χώ",
  "5422": "▁minist",
  "5423": "▁Again",
  "5424": "waż",
  "5425": "▁institut",
  "5426": "▁δύ",
  "5427": "▁2,",
  "5428": "φέ",
  "5429": "▁transpar",
  "5430": "▁반",
  "5431": "▁nosotros",
  "5432": "▁received",
  "5433": "elho",
  "5434": "▁increase",
  "5435": "▁geen",
  "5436": "▁circ",
  "5437": "▁한번",
  "5438": "uis",
  "5439": "▁coup",
  "5440": "▁głos",
  "5441": "▁middle",
  "5442": "▁avons",
  "5443": "▁World",
  "5444": "imiento",
  "5445": "▁After",
  "5446": "▁voir",
  "5447": "▁pays",
  "5448": "▁added",
  "5449": "▁mort",
  "5450": "▁dial",
  "5451": "▁gesch",
  "5452": "▁χρη",
  "5453": "▁hair",
  "5454": "▁territ",
  "5455": "▁univers",
  "5456": "▁blood",
  "5457": "▁gran",
  "5458": "άζ",
  "5459": "▁rate",
  "5460": "Euro",
  "5461": "żeli",
  "5462": "room",
  "5463": "▁letter",
  "5464": "▁host",
  "5465": "▁됩니다",
  "5466": "ώσει",
  "5467": "▁Come",
  "5468": "ublic",
  "5469": "▁oblig",
  "5470": "▁dif",
  "5471": "▁dere",
  "5472": "δα",
  "5473": "amen",
  "5474": "load",
  "5475": "▁improve",
  "5476": "▁results",
  "5477": "▁platform",
  "5478": "▁Sen",
  "5479": "▁Lord",
  "5480": "▁장",
  "5481": "vest",
  "5482": "▁Ang",
  "5483": "▁até",
  "5484": "anh",
  "5485": "▁Πρό",
  "5486": "él",
  "5487": "▁μό",
  "5488": "▁agr",
  "5489": "issen",
  "5490": "▁tại",
  "5491": "▁although",
  "5492": "ام",
  "5493": "▁vielleicht",
  "5494": "▁남",
  "5495": "wią",
  "5496": "yle",
  "5497": "vision",
  "5498": "ουργ",
  "5499": "▁interested",
  "5500": "▁possib",
  "5501": "▁App",
  "5502": "▁office",
  "5503": "▁εργ",
  "5504": "▁ancora",
  "5505": "ountain",
  "5506": "▁설",
  "5507": "▁vog",
  "5508": "▁wä",
  "5509": "oli",
  "5510": "▁decl",
  "5511": "▁tent",
  "5512": "ầu",
  "5513": "▁Dann",
  "5514": "には",
  "5515": "▁places",
  "5516": "ούλιο",
  "5517": "▁lat",
  "5518": "▁Any",
  "5519": "amm",
  "5520": "っていう",
  "5521": "▁culture",
  "5522": "▁voilà",
  "5523": "▁mant",
  "5524": "▁confer",
  "5525": "4,",
  "5526": "asi",
  "5527": "▁hun",
  "5528": "▁Ce",
  "5529": "▁carry",
  "5530": "▁wichtig",
  "5531": "▁gentle",
  "5532": "▁우리가",
  "5533": "▁mijn",
  "5534": "▁2.",
  "5535": "▁require",
  "5536": "ahren",
  "5537": "▁review",
  "5538": "▁reform",
  "5539": "▁livello",
  "5540": "ière",
  "5541": "υρώ",
  "5542": "λον",
  "5543": "ời",
  "5544": "▁fif",
  "5545": "▁될",
  "5546": "▁forg",
  "5547": "▁fish",
  "5548": "▁vill",
  "5549": "▁presidente",
  "5550": "▁불",
  "5551": "▁altri",
  "5552": "▁channel",
  "5553": "éri",
  "5554": "▁Pre",
  "5555": "▁ok",
  "5556": "▁εδώ",
  "5557": "ồng",
  "5558": "▁égal",
  "5559": "▁screen",
  "5560": "▁Where",
  "5561": "ちょ",
  "5562": "▁financial",
  "5563": "▁ps",
  "5564": "▁respond",
  "5565": "ising",
  "5566": "▁wood",
  "5567": "icient",
  "5568": "▁decision",
  "5569": "▁Mon",
  "5570": "▁sleep",
  "5571": "7,",
  "5572": "▁master",
  "5573": "▁thì",
  "5574": "▁powin",
  "5575": "▁favour",
  "5576": "ellig",
  "5577": "▁Po",
  "5578": "▁τώρα",
  "5579": "nym",
  "5580": "▁beyond",
  "5581": "▁Ç",
  "5582": "▁pessoas",
  "5583": "▁Inter",
  "5584": "▁mid",
  "5585": "ague",
  "5586": "▁pub",
  "5587": "▁Ça",
  "5588": "▁wants",
  "5589": "▁Komis",
  "5590": "ền",
  "5591": "▁extrem",
  "5592": "▁contact",
  "5593": "▁κάπο",
  "5594": "▁pelo",
  "5595": "τών",
  "5596": "▁anni",
  "5597": "▁Much",
  "5598": "▁occup",
  "5599": "▁train",
  "5600": "▁dieses",
  "5601": "äs",
  "5602": "▁È",
  "5603": "vez",
  "5604": "▁eye",
  "5605": "6,",
  "5606": "asse",
  "5607": "isten",
  "5608": "zar",
  "5609": "▁배",
  "5610": "eme",
  "5611": "▁결",
  "5612": "ũng",
  "5613": "9,",
  "5614": "▁according",
  "5615": "▁pleas",
  "5616": "zw",
  "5617": "▁komm",
  "5618": "▁herself",
  "5619": "▁card",
  "5620": "back",
  "5621": "▁gef",
  "5622": "▁rules",
  "5623": "▁καλ",
  "5624": "▁있어요",
  "5625": "▁sic",
  "5626": "▁Gru",
  "5627": "▁tiem",
  "5628": "▁차",
  "5629": "▁cel",
  "5630": "▁site",
  "5631": "▁서",
  "5632": "▁commission",
  "5633": "zza",
  "5634": "iero",
  "5635": "▁National",
  "5636": "▁oppos",
  "5637": "▁mainten",
  "5638": "▁sn",
  "5639": "▁phot",
  "5640": "ίσ",
  "5641": "νό",
  "5642": "atures",
  "5643": "υση",
  "5644": "cast",
  "5645": "▁Cal",
  "5646": "▁따",
  "5647": "▁감",
  "5648": "entially",
  "5649": "▁citizens",
  "5650": "▁deliver",
  "5651": "▁conditions",
  "5652": "ống",
  "5653": "▁emp",
  "5654": "▁Για",
  "5655": "sh",
  "5656": "적인",
  "5657": "θούν",
  "5658": "▁vista",
  "5659": "وم",
  "5660": "▁Ital",
  "5661": "▁Κα",
  "5662": "airs",
  "5663": "▁prot",
  "5664": "9.",
  "5665": "jà",
  "5666": "▁nombre",
  "5667": "▁absolutely",
  "5668": "zion",
  "5669": "▁mov",
  "5670": "▁cả",
  "5671": "▁dent",
  "5672": "▁film",
  "5673": "itas",
  "5674": "ract",
  "5675": "▁απα",
  "5676": "▁version",
  "5677": "ρια",
  "5678": "▁labor",
  "5679": "▁changed",
  "5680": "äng",
  "5681": "χει",
  "5682": "▁οποία",
  "5683": "▁¡",
  "5684": "ρει",
  "5685": "emple",
  "5686": "▁acqu",
  "5687": "▁till",
  "5688": "▁court",
  "5689": "iers",
  "5690": "▁nome",
  "5691": "▁production",
  "5692": "▁stood",
  "5693": "▁εμ",
  "5694": "gio",
  "5695": "ρισ",
  "5696": "aient",
  "5697": "▁besch",
  "5698": "▁gre",
  "5699": "▁zal",
  "5700": "itation",
  "5701": "▁straight",
  "5702": "orge",
  "5703": "▁eigen",
  "5704": "utions",
  "5705": "áng",
  "5706": "▁basis",
  "5707": "▁temper",
  "5708": "lin",
  "5709": "거든요",
  "5710": "δι",
  "5711": "olle",
  "5712": "▁kraj",
  "5713": "どう",
  "5714": "arde",
  "5715": "▁detto",
  "5716": "ượng",
  "5717": "wiście",
  "5718": "czywiście",
  "5719": "▁gaan",
  "5720": "▁τε",
  "5721": "ierung",
  "5722": "▁mano",
  "5723": "▁depo",
  "5724": "▁perd",
  "5725": "▁Will",
  "5726": "▁anderen",
  "5727": "▁appre",
  "5728": "▁lle",
  "5729": "▁Buen",
  "5730": "たい",
  "5731": "▁picture",
  "5732": "▁Look",
  "5733": "▁amaz",
  "5734": "▁etwas",
  "5735": "▁dizer",
  "5736": "▁starting",
  "5737": "▁ora",
  "5738": "wise",
  "5739": "▁ét",
  "5740": "chi",
  "5741": "▁falar",
  "5742": "しょう",
  "5743": "▁조금",
  "5744": "χή",
  "5745": "▁rapport",
  "5746": "brig",
  "5747": "▁decided",
  "5748": "ogen",
  "5749": "▁당",
  "5750": "▁ejemplo",
  "5751": "▁size",
  "5752": "iano",
  "5753": "olt",
  "5754": "▁unf",
  "5755": "▁central",
  "5756": "▁Au",
  "5757": "aries",
  "5758": "▁kept",
  "5759": "▁przed",
  "5760": "▁segur",
  "5761": "▁lic",
  "5762": "εδρε",
  "5763": "▁Os",
  "5764": "▁casa",
  "5765": "γρα",
  "5766": "▁movement",
  "5767": "▁diesen",
  "5768": "apt",
  "5769": "θέ",
  "5770": "asion",
  "5771": "▁push",
  "5772": "cip",
  "5773": "▁Maybe",
  "5774": "atives",
  "5775": "▁origin",
  "5776": "▁depois",
  "5777": "8.",
  "5778": "▁누",
  "5779": "▁ay",
  "5780": "▁này",
  "5781": "▁.",
  "5782": "iling",
  "5783": "mem",
  "5784": "ring",
  "5785": "ちょっと",
  "5786": "▁solution",
  "5787": "▁considered",
  "5788": "▁message",
  "5789": "▁Como",
  "5790": "▁west",
  "5791": "ares",
  "5792": "▁ανά",
  "5793": "hood",
  "5794": "▁wiel",
  "5795": "▁bottom",
  "5796": "ición",
  "5797": "▁touch",
  "5798": "▁roll",
  "5799": "▁aby",
  "5800": "▁doen",
  "5801": "▁πιο",
  "5802": "▁sprawozd",
  "5803": "▁carried",
  "5804": "▁οικο",
  "5805": "▁Di",
  "5806": "▁enf",
  "5807": "▁interpre",
  "5808": "▁lower",
  "5809": "▁된",
  "5810": "这个",
  "5811": "▁σχέ",
  "5812": "λου",
  "5813": "▁Ass",
  "5814": "▁nem",
  "5815": "▁πο",
  "5816": "▁하나님",
  "5817": "▁cara",
  "5818": "▁leaders",
  "5819": "θεση",
  "5820": "ban",
  "5821": "▁gia",
  "5822": "▁twenty",
  "5823": "▁202",
  "5824": "▁safe",
  "5825": "▁contre",
  "5826": "▁먹",
  "5827": "▁stream",
  "5828": "▁protection",
  "5829": "▁encont",
  "5830": "▁pati",
  "5831": "▁ut",
  "5832": "▁quality",
  "5833": "▁Europä",
  "5834": "▁nell",
  "5835": "occ",
  "5836": "4.",
  "5837": "▁Beispiel",
  "5838": "▁khi",
  "5839": "▁κρά",
  "5840": "▁tegen",
  "5841": "▁target",
  "5842": "▁earlier",
  "5843": "▁miembros",
  "5844": "かな",
  "5845": "▁og",
  "5846": "▁재",
  "5847": "▁매",
  "5848": "▁Na",
  "5849": "▁Tam",
  "5850": "θυ",
  "5851": "orden",
  "5852": "▁così",
  "5853": "▁prep",
  "5854": "▁website",
  "5855": "▁kwest",
  "5856": "▁你",
  "5857": "▁attempt",
  "5858": "▁Você",
  "5859": "▁glaube",
  "5860": "▁books",
  "5861": "▁Res",
  "5862": "▁discussion",
  "5863": "petto",
  "5864": "▁également",
  "5865": "▁음",
  "5866": "▁tych",
  "5867": "▁eigentlich",
  "5868": "artment",
  "5869": "ório",
  "5870": "uda",
  "5871": "rote",
  "5872": "▁types",
  "5873": "▁clean",
  "5874": "▁às",
  "5875": "▁mut",
  "5876": "▁pel",
  "5877": "▁feed",
  "5878": "▁twe",
  "5879": "▁match",
  "5880": "▁όπω",
  "5881": "▁Wenn",
  "5882": "▁gaat",
  "5883": "ίτε",
  "5884": "▁mercado",
  "5885": "▁Λ",
  "5886": "▁opinion",
  "5887": "▁brother",
  "5888": "izing",
  "5889": "▁już",
  "5890": "▁playing",
  "5891": "▁pom",
  "5892": "▁recon",
  "5893": "▁Unter",
  "5894": "▁context",
  "5895": "▁weeks",
  "5896": "▁popular",
  "5897": "▁sais",
  "5898": "▁lleg",
  "5899": "▁Who",
  "5900": "▁déjà",
  "5901": "▁Ι",
  "5902": "▁travel",
  "5903": "▁déc",
  "5904": "ously",
  "5905": "▁agricult",
  "5906": "▁ded",
  "5907": "▁capt",
  "5908": "▁ble",
  "5909": "▁verb",
  "5910": "▁40",
  "5911": "aven",
  "5912": "cks",
  "5913": "anced",
  "5914": "lace",
  "5915": "▁vert",
  "5916": "iego",
  "5917": "uly",
  "5918": "▁influ",
  "5919": "▁ήθε",
  "5920": "▁'",
  "5921": "▁강",
  "5922": "âm",
  "5923": "ughter",
  "5924": "▁structure",
  "5925": "▁cloud",
  "5926": "orevole",
  "5927": "ground",
  "5928": "▁training",
  "5929": "도록",
  "5930": "bst",
  "5931": "▁dovre",
  "5932": "▁products",
  "5933": "cient",
  "5934": "▁Menschen",
  "5935": "▁trop",
  "5936": "ół",
  "5937": "▁nó",
  "5938": "astic",
  "5939": "▁encou",
  "5940": "eness",
  "5941": "▁responsabil",
  "5942": "▁knows",
  "5943": "▁einmal",
  "5944": "isschen",
  "5945": "▁prem",
  "5946": "▁purpose",
  "5947": "▁numbers",
  "5948": "ktion",
  "5949": "6.",
  "5950": "-1",
  "5951": "▁protect",
  "5952": "▁ahí",
  "5953": "▁ring",
  "5954": "▁sans",
  "5955": "▁πω",
  "5956": "인데",
  "5957": "▁그렇게",
  "5958": "▁neigh",
  "5959": "▁cái",
  "5960": "▁Αυτό",
  "5961": "▁YouT",
  "5962": "▁trabalho",
  "5963": "orrow",
  "5964": "aken",
  "5965": "lko",
  "5966": "▁infl",
  "5967": "▁Los",
  "5968": "▁effective",
  "5969": "▁từ",
  "5970": "▁block",
  "5971": "▁także",
  "5972": "ốn",
  "5973": "▁polity",
  "5974": "▁pier",
  "5975": "▁honest",
  "5976": "▁sido",
  "5977": "7.",
  "5978": "▁proc",
  "5979": "łe",
  "5980": "▁cũng",
  "5981": "rä",
  "5982": "alu",
  "5983": "▁forget",
  "5984": "▁facil",
  "5985": "▁Conse",
  "5986": "잖아요",
  "5987": "▁luego",
  "5988": "▁raz",
  "5989": "▁English",
  "5990": "izi",
  "5991": "▁melhor",
  "5992": "▁약",
  "5993": "just",
  "5994": "raft",
  "5995": "itive",
  "5996": "▁eat",
  "5997": "▁libr",
  "5998": "eur",
  "5999": "▁lad",
  "6000": "uchen",
  "6001": "▁military",
  "6002": "▁videos",
  "6003": "▁gegen",
  "6004": "▁supposed",
  "6005": "▁cual",
  "6006": "σσ",
  "6007": "▁spot",
  "6008": "ρίζ",
  "6009": "▁συμφων",
  "6010": "▁적",
  "6011": "▁jes",
  "6012": "play",
  "6013": "indo",
  "6014": "una",
  "6015": "▁soit",
  "6016": "▁ευ",
  "6017": "▁esemp",
  "6018": "ré",
  "6019": "net",
  "6020": "▁hecho",
  "6021": "lim",
  "6022": "▁sau",
  "6023": "▁claro",
  "6024": "▁tor",
  "6025": "▁couldn",
  "6026": "もう",
  "6027": "lying",
  "6028": "▁hatte",
  "6029": "bol",
  "6030": "▁dream",
  "6031": "▁fit",
  "6032": "▁tin",
  "6033": "ostaria",
  "6034": "essed",
  "6035": "▁projects",
  "6036": "rica",
  "6037": "▁Ele",
  "6038": "▁años",
  "6039": "▁negative",
  "6040": "áp",
  "6041": "ball",
  "6042": "▁haar",
  "6043": "▁الس",
  "6044": "▁부분",
  "6045": "wick",
  "6046": "▁단",
  "6047": "▁citt",
  "6048": "▁tan",
  "6049": "▁challeng",
  "6050": "▁obrigado",
  "6051": "▁frequ",
  "6052": "▁tiempo",
  "6053": "äm",
  "6054": "▁cele",
  "6055": "▁regular",
  "6056": "▁Land",
  "6057": "▁nossa",
  "6058": "▁South",
  "6059": "▁Nie",
  "6060": "yed",
  "6061": "▁د",
  "6062": "▁Jap",
  "6063": "します",
  "6064": "▁Du",
  "6065": "▁bisschen",
  "6066": "▁οποίο",
  "6067": "ور",
  "6068": "▁writing",
  "6069": "▁doubt",
  "6070": "▁growth",
  "6071": "▁nuo",
  "6072": "ają",
  "6073": "▁파",
  "6074": "▁então",
  "6075": "▁monde",
  "6076": "▁conversation",
  "6077": "▁hace",
  "6078": "iles",
  "6079": "▁νέ",
  "6080": "ários",
  "6081": "▁gold",
  "6082": "ơn",
  "6083": "▁altern",
  "6084": "▁meaning",
  "6085": "▁See",
  "6086": "▁satisf",
  "6087": "▁ασ",
  "6088": "▁followed",
  "6089": "▁exec",
  "6090": "▁alors",
  "6091": "▁putting",
  "6092": "ery",
  "6093": "akt",
  "6094": "jours",
  "6095": "ißt",
  "6096": "▁έκ",
  "6097": "▁Frage",
  "6098": "▁Hay",
  "6099": "φέρ",
  "6100": "▁Frau",
  "6101": "hold",
  "6102": "rible",
  "6103": "▁learned",
  "6104": "면은",
  "6105": "μεί",
  "6106": "asons",
  "6107": "▁finanzi",
  "6108": "▁tele",
  "6109": "▁Portanto",
  "6110": "▁understanding",
  "6111": "▁등",
  "6112": "▁Para",
  "6113": "enge",
  "6114": "▁그렇",
  "6115": "▁cómo",
  "6116": "nte",
  "6117": "▁file",
  "6118": "▁gain",
  "6119": "las",
  "6120": "▁quoi",
  "6121": "▁collect",
  "6122": "▁song",
  "6123": "zz",
  "6124": "▁rapporte",
  "6125": "vem",
  "6126": "▁visto",
  "6127": "▁ω",
  "6128": "▁ήθελα",
  "6129": "▁lid",
  "6130": "▁item",
  "6131": "▁internet",
  "6132": "▁offer",
  "6133": "▁excl",
  "6134": "voor",
  "6135": "inte",
  "6136": "▁aller",
  "6137": "▁former",
  "6138": "▁τρο",
  "6139": "atory",
  "6140": "▁bere",
  "6141": "▁greater",
  "6142": "▁mà",
  "6143": "itti",
  "6144": "▁innov",
  "6145": "▁shows",
  "6146": "▁Dr",
  "6147": "▁hiện",
  "6148": "▁Kommission",
  "6149": "hui",
  "6150": "▁αρχ",
  "6151": "▁mie",
  "6152": "▁pergun",
  "6153": "bie",
  "6154": "▁price",
  "6155": "iques",
  "6156": "▁입",
  "6157": "ii",
  "6158": "よね",
  "6159": "▁今",
  "6160": "pri",
  "6161": "▁집",
  "6162": "▁speaking",
  "6163": "anç",
  "6164": "▁partners",
  "6165": "▁χώρε",
  "6166": "▁visit",
  "6167": "formation",
  "6168": "▁może",
  "6169": "▁management",
  "6170": "▁señora",
  "6171": "▁meine",
  "6172": "▁fue",
  "6173": "anch",
  "6174": "cción",
  "6175": ",\"",
  "6176": "ραγμα",
  "6177": "▁après",
  "6178": "▁ngày",
  "6179": "▁Spe",
  "6180": "▁minha",
  "6181": "▁zero",
  "6182": "στή",
  "6183": "jourd",
  "6184": "lies",
  "6185": "▁hein",
  "6186": "▁Κοι",
  "6187": "arden",
  "6188": "▁dois",
  "6189": "▁αυτέ",
  "6190": "▁Har",
  "6191": "▁collabor",
  "6192": "ạn",
  "6193": "▁확",
  "6194": "▁rze",
  "6195": "▁band",
  "6196": "▁entonces",
  "6197": "それ",
  "6198": "fol",
  "6199": "iveau",
  "6200": "▁tylko",
  "6201": "▁France",
  "6202": "▁Dem",
  "6203": "▁rou",
  "6204": "▁danger",
  "6205": "▁developed",
  "6206": "▁ign",
  "6207": "▁Voilà",
  "6208": "▁mismo",
  "6209": "iendo",
  "6210": "▁reading",
  "6211": "▁offic",
  "6212": "▁작",
  "6213": "pression",
  "6214": "▁Ke",
  "6215": "▁north",
  "6216": "はい",
  "6217": "là",
  "6218": "▁prefer",
  "6219": "▁Pour",
  "6220": "▁사용",
  "6221": "▁Zeit",
  "6222": "▁discover",
  "6223": "▁relazione",
  "6224": "▁현",
  "6225": "uppo",
  "6226": "ake",
  "6227": "▁King",
  "6228": "▁μόνο",
  "6229": "▁throughout",
  "6230": "▁forth",
  "6231": "▁chem",
  "6232": "▁sond",
  "6233": "▁Good",
  "6234": "ện",
  "6235": "lare",
  "6236": "▁Gener",
  "6237": "▁Nat",
  "6238": "▁tant",
  "6239": "▁말씀",
  "6240": "▁belangrij",
  "6241": "ني",
  "6242": "rient",
  "6243": "▁Ges",
  "6244": "▁YouTube",
  "6245": "어서",
  "6246": "▁막",
  "6247": "▁fundamental",
  "6248": "▁connect",
  "6249": "▁saf",
  "6250": "▁seja",
  "6251": "kte",
  "6252": "▁싶",
  "6253": "▁related",
  "6254": "▁nei",
  "6255": "▁toujours",
  "6256": "▁Cha",
  "6257": "kel",
  "6258": "시는",
  "6259": "ób",
  "6260": "τό",
  "6261": "▁Państ",
  "6262": "▁temat",
  "6263": "▁reun",
  "6264": "▁cô",
  "6265": "▁pad",
  "6266": "àng",
  "6267": "▁saber",
  "6268": "▁zwei",
  "6269": "▁image",
  "6270": "▁acuerdo",
  "6271": "via",
  "6272": "enas",
  "6273": "▁Ih",
  "6274": "▁dân",
  "6275": "\".",
  "6276": "▁Lib",
  "6277": "cn",
  "6278": "▁ali",
  "6279": "ật",
  "6280": "idge",
  "6281": "▁στον",
  "6282": "▁eer",
  "6283": "▁pú",
  "6284": "▁Ed",
  "6285": "inn",
  "6286": "ality",
  "6287": "λαδή",
  "6288": "▁tim",
  "6289": "▁Ol",
  "6290": "▁siamo",
  "6291": "▁Bon",
  "6292": "aron",
  "6293": "λι",
  "6294": "ciał",
  "6295": "▁têm",
  "6296": "ativo",
  "6297": "كم",
  "6298": "▁trib",
  "6299": "▁repe",
  "6300": "就是",
  "6301": "arios",
  "6302": "▁Questo",
  "6303": "▁Our",
  "6304": "▁Vor",
  "6305": "rast",
  "6306": "▁events",
  "6307": "▁rule",
  "6308": "▁pela",
  "6309": "plac",
  "6310": "ua",
  "6311": "▁lei",
  "6312": "ités",
  "6313": "▁ήταν",
  "6314": "▁famil",
  "6315": "▁cold",
  "6316": "▁mamy",
  "6317": "owanie",
  "6318": "ăng",
  "6319": "▁plann",
  "6320": "▁tôi",
  "6321": "▁meant",
  "6322": "▁clar",
  "6323": "▁ig",
  "6324": "▁Wo",
  "6325": "▁moved",
  "6326": "▁Those",
  "6327": "▁evol",
  "6328": "▁agreement",
  "6329": "λει",
  "6330": "kl",
  "6331": "▁ψη",
  "6332": "▁198",
  "6333": "▁ط",
  "6334": "▁demon",
  "6335": "▁drink",
  "6336": "▁throw",
  "6337": "かった",
  "6338": "▁stage",
  "6339": "▁crim",
  "6340": "erve",
  "6341": "▁utiliz",
  "6342": "▁pron",
  "6343": "ków",
  "6344": "ài",
  "6345": "νου",
  "6346": "▁Dav",
  "6347": "▁Nós",
  "6348": "▁histor",
  "6349": "ấy",
  "6350": "▁Auf",
  "6351": "▁κύριο",
  "6352": "▁India",
  "6353": "▁center",
  "6354": "chts",
  "6355": "▁describ",
  "6356": "▁παρά",
  "6357": "▁resist",
  "6358": "▁network",
  "6359": "▁speed",
  "6360": "▁Mitgli",
  "6361": "▁regional",
  "6362": "γώ",
  "6363": "▁wrote",
  "6364": "arg",
  "6365": "arse",
  "6366": "ienia",
  "6367": "50",
  "6368": "▁insp",
  "6369": "▁cela",
  "6370": "inder",
  "6371": "▁21",
  "6372": "▁assum",
  "6373": "ogle",
  "6374": "reich",
  "6375": "시고",
  "6376": "▁Pani",
  "6377": "eles",
  "6378": "▁mission",
  "6379": "▁Ear",
  "6380": "▁anyone",
  "6381": "rol",
  "6382": "▁mine",
  "6383": "ager",
  "6384": "▁colon",
  "6385": "▁pil",
  "6386": "yl",
  "6387": "▁fan",
  "6388": "▁generally",
  "6389": "▁palav",
  "6390": "▁likely",
  "6391": "▁diz",
  "6392": "ốc",
  "6393": "staw",
  "6394": "▁odpowied",
  "6395": "▁χρό",
  "6396": "▁veel",
  "6397": "▁onze",
  "6398": "ùng",
  "6399": "▁desp",
  "6400": "▁Minister",
  "6401": "isk",
  "6402": "▁economy",
  "6403": "▁sitting",
  "6404": "▁필",
  "6405": "cap",
  "6406": "ισμό",
  "6407": "▁range",
  "6408": "▁bound",
  "6409": "▁island",
  "6410": "▁rat",
  "6411": "▁Vors",
  "6412": "▁진짜",
  "6413": "▁willen",
  "6414": "▁virt",
  "6415": "▁politica",
  "6416": "▁directly",
  "6417": "▁zeg",
  "6418": "▁evidence",
  "6419": "▁człon",
  "6420": "▁premi",
  "6421": "▁facto",
  "6422": "など",
  "6423": "inc",
  "6424": "▁viv",
  "6425": "▁tools",
  "6426": "▁allowed",
  "6427": "まで",
  "6428": "▁Mich",
  "6429": "▁committee",
  "6430": "ID",
  "6431": "▁συγκ",
  "6432": "more",
  "6433": "▁Hol",
  "6434": "▁esempio",
  "6435": "▁πολιτική",
  "6436": "ês",
  "6437": "gy",
  "6438": "▁analys",
  "6439": "▁jeszcze",
  "6440": "▁asking",
  "6441": "▁υπάρχουν",
  "6442": "▁있고",
  "6443": "uest",
  "6444": "edom",
  "6445": "imas",
  "6446": "▁pred",
  "6447": "ota",
  "6448": "urd",
  "6449": "▁dentro",
  "6450": "なんです",
  "6451": "▁Prze",
  "6452": "▁choose",
  "6453": "van",
  "6454": "▁저는",
  "6455": "▁lines",
  "6456": "▁Char",
  "6457": "▁penso",
  "6458": "▁compar",
  "6459": "volution",
  "6460": "bit",
  "6461": "▁앞",
  "6462": "▁south",
  "6463": "▁powied",
  "6464": "care",
  "6465": "▁consist",
  "6466": "▁occur",
  "6467": "▁democra",
  "6468": "▁gleich",
  "6469": "▁これ",
  "6470": "▁stick",
  "6471": "ió",
  "6472": "▁complete",
  "6473": "ục",
  "6474": "▁philos",
  "6475": "▁palab",
  "6476": "▁daß",
  "6477": "▁died",
  "6478": "kład",
  "6479": "▁continued",
  "6480": "ιση",
  "6481": "▁Tra",
  "6482": "▁ở",
  "6483": "▁Ευρώ",
  "6484": "▁climate",
  "6485": "▁quad",
  "6486": "▁gover",
  "6487": "▁trois",
  "6488": "iglio",
  "6489": "こう",
  "6490": "mit",
  "6491": "▁trên",
  "6492": "▁solu",
  "6493": "▁observ",
  "6494": "▁Stati",
  "6495": "▁breat",
  "6496": "▁jump",
  "6497": "eres",
  "6498": "agem",
  "6499": "▁쓰",
  "6500": "▁Bro",
  "6501": "▁προβ",
  "6502": "ères",
  "6503": "úng",
  "6504": "▁σημαντικό",
  "6505": "▁ähm",
  "6506": "▁mia",
  "6507": "idé",
  "6508": "▁será",
  "6509": "▁hoe",
  "6510": "▁최",
  "6511": "uted",
  "6512": "ront",
  "6513": "▁distin",
  "6514": "كن",
  "6515": "▁او",
  "6516": "ετε",
  "6517": "▁υπέρ",
  "6518": "▁intellig",
  "6519": "cript",
  "6520": "▁fest",
  "6521": "▁erst",
  "6522": "▁gens",
  "6523": "▁coisa",
  "6524": "▁kids",
  "6525": "▁νομ",
  "6526": "chos",
  "6527": "▁recommend",
  "6528": "▁coordin",
  "6529": "▁więc",
  "6530": "▁property",
  "6531": "▁minister",
  "6532": "▁commissie",
  "6533": "▁nap",
  "6534": "▁North",
  "6535": "▁games",
  "6536": "▁christ",
  "6537": "▁measure",
  "6538": "▁evening",
  "6539": "▁America",
  "6540": "▁brief",
  "6541": "zitter",
  "6542": "▁würde",
  "6543": "▁Ευρώπη",
  "6544": "▁nhân",
  "6545": "conóm",
  "6546": "▁curr",
  "6547": "▁born",
  "6548": "▁ade",
  "6549": "▁farm",
  "6550": "▁fais",
  "6551": "▁λέ",
  "6552": "nia",
  "6553": "▁Art",
  "6554": "▁drug",
  "6555": "▁thành",
  "6556": "eta",
  "6557": "▁donde",
  "6558": "rupt",
  "6559": "ays",
  "6560": "▁glad",
  "6561": "日本",
  "6562": "▁κυρία",
  "6563": "oma",
  "6564": "▁통",
  "6565": "▁hous",
  "6566": "一个",
  "6567": "▁lig",
  "6568": "ăn",
  "6569": "이라고",
  "6570": "fall",
  "6571": "▁ί",
  "6572": "rzy",
  "6573": "▁controll",
  "6574": "▁bast",
  "6575": "▁cambi",
  "6576": "▁launch",
  "6577": "게요",
  "6578": "▁sondern",
  "6579": "imate",
  "6580": "νά",
  "6581": "uros",
  "6582": "▁student",
  "6583": "▁sehen",
  "6584": "bil",
  "6585": "▁hin",
  "6586": "istas",
  "6587": "▁otros",
  "6588": "ển",
  "6589": "▁durante",
  "6590": "oti",
  "6591": "▁δυνα",
  "6592": "elijke",
  "6593": "▁mí",
  "6594": "▁lado",
  "6595": "▁الق",
  "6596": "다면",
  "6597": "▁sag",
  "6598": "ught",
  "6599": "rench",
  "6600": "▁viene",
  "6601": "membros",
  "6602": "▁prison",
  "6603": "▁naj",
  "6604": "▁notice",
  "6605": "▁그럼",
  "6606": "▁physical",
  "6607": "δικ",
  "6608": "▁gust",
  "6609": "▁đồng",
  "6610": "▁この",
  "6611": "▁chat",
  "6612": "εδο",
  "6613": "ester",
  "6614": "▁ber",
  "6615": "▁Obrig",
  "6616": "▁instance",
  "6617": "مه",
  "6618": "atz",
  "6619": "ität",
  "6620": "agues",
  "6621": "τυ",
  "6622": "▁nine",
  "6623": "▁niveau",
  "6624": "▁Hey",
  "6625": "▁British",
  "6626": "cen",
  "6627": "▁micro",
  "6628": "▁هذا",
  "6629": "uje",
  "6630": "▁나오",
  "6631": "▁theory",
  "6632": "χι",
  "6633": "▁quan",
  "6634": "▁toch",
  "6635": "▁Paul",
  "6636": "▁amazing",
  "6637": "▁compon",
  "6638": "▁ensure",
  "6639": "▁otro",
  "6640": "▁fle",
  "6641": "▁projet",
  "6642": "▁heißt",
  "6643": "▁heute",
  "6644": "▁famili",
  "6645": "▁stata",
  "6646": "%.",
  "6647": "▁hus",
  "6648": "hm",
  "6649": "ße",
  "6650": "ius",
  "6651": "▁police",
  "6652": "▁answered",
  "6653": "zenia",
  "6654": "ęp",
  "6655": "▁dalla",
  "6656": "▁consequ",
  "6657": "▁appreci",
  "6658": "▁cham",
  "6659": "▁cert",
  "6660": "▁prevent",
  "6661": "▁dare",
  "6662": "▁date",
  "6663": "▁qua",
  "6664": "▁wild",
  "6665": "▁moins",
  "6666": "▁hast",
  "6667": "什么",
  "6668": "▁Ou",
  "6669": "▁thou",
  "6670": "▁había",
  "6671": "▁aj",
  "6672": "emic",
  "6673": "▁condition",
  "6674": "▁situazione",
  "6675": "▁όμω",
  "6676": "▁verdad",
  "6677": "▁ourselves",
  "6678": "ef",
  "6679": "SA",
  "6680": "▁việc",
  "6681": "χο",
  "6682": "▁useful",
  "6683": "▁느",
  "6684": "▁maintain",
  "6685": "▁threat",
  "6686": "▁Abst",
  "6687": "▁합니다",
  "6688": "▁comfort",
  "6689": "▁ciud",
  "6690": "▁mix",
  "6691": "▁deleg",
  "6692": "uta",
  "6693": "▁gun",
  "6694": "▁infrast",
  "6695": "▁manif",
  "6696": "▁thu",
  "6697": "▁nostra",
  "6698": "▁setting",
  "6699": "▁aim",
  "6700": "▁tecn",
  "6701": "▁anos",
  "6702": "▁rend",
  "6703": "▁slight",
  "6704": "▁migli",
  "6705": "▁length",
  "6706": "عد",
  "6707": "▁tree",
  "6708": "▁apresent",
  "6709": "▁달",
  "6710": "▁somm",
  "6711": "▁disse",
  "6712": "▁الى",
  "6713": "late",
  "6714": "▁Bud",
  "6715": "▁해서",
  "6716": "▁περισσ",
  "6717": "ément",
  "6718": "érie",
  "6719": "τούμε",
  "6720": "▁telling",
  "6721": "▁application",
  "6722": "▁추",
  "6723": "▁πάρα",
  "6724": "▁κάτι",
  "6725": "▁exemple",
  "6726": "▁cosas",
  "6727": "▁clearly",
  "6728": "wij",
  "6729": "▁Ob",
  "6730": "▁họ",
  "6731": "▁όλα",
  "6732": "もの",
  "6733": "ząd",
  "6734": "▁loss",
  "6735": "▁περισσότε",
  "6736": "▁sell",
  "6737": "▁ισ",
  "6738": "▁Bueno",
  "6739": "▁dise",
  "6740": "▁cried",
  "6741": "▁From",
  "6742": "nah",
  "6743": "▁euch",
  "6744": "▁quelque",
  "6745": "▁viele",
  "6746": "▁surface",
  "6747": "▁다시",
  "6748": "▁gerade",
  "6749": "▁York",
  "6750": "▁있었",
  "6751": "▁problemas",
  "6752": "▁doctor",
  "6753": "▁collega",
  "6754": "uj",
  "6755": "▁halt",
  "6756": "▁μπορούμε",
  "6757": "ρον",
  "6758": "gel",
  "6759": "▁distance",
  "6760": "▁season",
  "6761": "▁197",
  "6762": "대로",
  "6763": "▁reached",
  "6764": "▁Trans",
  "6765": "▁ema",
  "6766": "▁jou",
  "6767": "illa",
  "6768": "▁Ok",
  "6769": "▁exemplo",
  "6770": "ape",
  "6771": "▁People",
  "6772": "eros",
  "6773": "rais",
  "6774": "▁Sí",
  "6775": "▁choses",
  "6776": "▁calcul",
  "6777": "▁fail",
  "6778": "▁aconte",
  "6779": "▁사실",
  "6780": "▁mayor",
  "6781": "inar",
  "6782": "▁rés",
  "6783": "rael",
  "6784": "▁pressure",
  "6785": "▁Υπ",
  "6786": "▁Dire",
  "6787": "▁hasta",
  "6788": "▁nú",
  "6789": "▁entr",
  "6790": "지는",
  "6791": "aus",
  "6792": "▁cet",
  "6793": "▁vos",
  "6794": "anken",
  "6795": "ondon",
  "6796": "▁double",
  "6797": "▁vent",
  "6798": "anos",
  "6799": "kra",
  "6800": "▁λόγο",
  "6801": "我们",
  "6802": "▁làm",
  "6803": "endant",
  "6804": "▁돌",
  "6805": "▁comments",
  "6806": "▁charge",
  "6807": "▁Wie",
  "6808": "▁window",
  "6809": "anu",
  "6810": "▁organization",
  "6811": "▁behav",
  "6812": "あの",
  "6813": "▁dess",
  "6814": "▁sister",
  "6815": "▁staff",
  "6816": "▁mettre",
  "6817": "▁evalu",
  "6818": "▁sarà",
  "6819": "▁jam",
  "6820": "▁played",
  "6821": "▁previous",
  "6822": "▁يا",
  "6823": "네요",
  "6824": "vas",
  "6825": "▁fully",
  "6826": "onsieur",
  "6827": "esh",
  "6828": "▁repr",
  "6829": "▁potential",
  "6830": "として",
  "6831": "▁nut",
  "6832": "▁Japan",
  "6833": "▁probl",
  "6834": "▁3,",
  "6835": "ições",
  "6836": "▁svil",
  "6837": "▁software",
  "6838": "▁immediately",
  "6839": "icles",
  "6840": "▁trze",
  "6841": "▁dazu",
  "6842": "▁destro",
  "6843": "▁sz",
  "6844": "ίσουμε",
  "6845": "unkt",
  "6846": "▁바로",
  "6847": "به",
  "6848": "▁πρά",
  "6849": "σαμε",
  "6850": "qué",
  "6851": "iber",
  "6852": "ذه",
  "6853": "▁Gree",
  "6854": "▁wollen",
  "6855": "icz",
  "6856": "▁institutions",
  "6857": "uten",
  "6858": "▁explain",
  "6859": "▁brand",
  "6860": "chn",
  "6861": "gn",
  "6862": "itable",
  "6863": "▁fisc",
  "6864": "▁strugg",
  "6865": "iced",
  "6866": "▁basic",
  "6867": "とこ",
  "6868": "▁sentido",
  "6869": "▁Sw",
  "6870": "▁ran",
  "6871": "utto",
  "6872": "▁Google",
  "6873": "pie",
  "6874": "▁Κοινοβ",
  "6875": "하면",
  "6876": "▁street",
  "6877": "▁partner",
  "6878": "▁Vielen",
  "6879": "▁reasons",
  "6880": "▁Bel",
  "6881": "vato",
  "6882": "▁conclus",
  "6883": "▁equip",
  "6884": "▁ability",
  "6885": "▁percent",
  "6886": "▁emot",
  "6887": "ris",
  "6888": "▁magn",
  "6889": "esa",
  "6890": "▁Ac",
  "6891": "▁aware",
  "6892": "▁arms",
  "6893": "▁thể",
  "6894": "adow",
  "6895": "▁bị",
  "6896": "▁goal",
  "6897": "▁manner",
  "6898": "▁thanks",
  "6899": "▁section",
  "6900": "▁questione",
  "6901": "▁Proble",
  "6902": "▁bộ",
  "6903": "▁nod",
  "6904": "ué",
  "6905": "▁categ",
  "6906": "uls",
  "6907": "▁kil",
  "6908": "▁Che",
  "6909": "▁funcion",
  "6910": "があ",
  "6911": "▁Apr",
  "6912": "hol",
  "6913": "▁announ",
  "6914": "▁parlament",
  "6915": "▁kommen",
  "6916": "▁spread",
  "6917": "entions",
  "6918": "uses",
  "6919": "met",
  "6920": "▁시간",
  "6921": "▁الش",
  "6922": "part",
  "6923": "▁différ",
  "6924": "▁mountain",
  "6925": "▁husband",
  "6926": "▁Bre",
  "6927": "▁thoughts",
  "6928": "▁gez",
  "6929": "قه",
  "6930": "▁przez",
  "6931": "▁wen",
  "6932": "▁donne",
  "6933": "aft",
  "6934": "من",
  "6935": "▁Consiglio",
  "6936": "▁vig",
  "6937": "▁shit",
  "6938": "▁kinds",
  "6939": "▁empresas",
  "6940": "▁acordo",
  "6941": "▁maintenant",
  "6942": "▁miles",
  "6943": "▁imposs",
  "6944": "▁diss",
  "6945": "▁Tu",
  "6946": "▁easily",
  "6947": "با",
  "6948": "owych",
  "6949": "▁minim",
  "6950": "▁trabajo",
  "6951": "▁button",
  "6952": "τον",
  "6953": "▁shot",
  "6954": "aker",
  "6955": "▁significant",
  "6956": "▁parents",
  "6957": "▁3.",
  "6958": "▁européenne",
  "6959": "ác",
  "6960": "lished",
  "6961": "▁sustain",
  "6962": "tar",
  "6963": "▁eh",
  "6964": "ternal",
  "6965": "▁pued",
  "6966": "기를",
  "6967": "▁grandes",
  "6968": "▁conven",
  "6969": "▁οικονομ",
  "6970": "wort",
  "6971": "▁Son",
  "6972": "▁sẽ",
  "6973": "▁response",
  "6974": "can",
  "6975": "▁hall",
  "6976": "aces",
  "6977": "▁opened",
  "6978": "▁Christian",
  "6979": "▁Mor",
  "6980": "ưa",
  "6981": "uw",
  "6982": "▁υπό",
  "6983": "▁Señ",
  "6984": "▁forces",
  "6985": "▁bear",
  "6986": "▁Entonces",
  "6987": "▁있는데",
  "6988": "ech",
  "6989": "▁수가",
  "6990": "▁serie",
  "6991": "▁dut",
  "6992": "▁كان",
  "6993": "▁enorm",
  "6994": "ña",
  "6995": "▁computer",
  "6996": "ancia",
  "6997": "▁machine",
  "6998": "lia",
  "6999": "onds",
  "7000": "▁river",
  "7001": "▁suddenly",
  "7002": "λλά",
  "7003": "▁queremos",
  "7004": "▁dav",
  "7005": "▁minus",
  "7006": "vention",
  "7007": "▁complic",
  "7008": "▁diritti",
  "7009": "bel",
  "7010": "▁asse",
  "7011": "key",
  "7012": "▁concre",
  "7013": "▁bird",
  "7014": "30",
  "7015": "▁firm",
  "7016": "▁Fre",
  "7017": "▁replied",
  "7018": "kowsk",
  "7019": "▁guer",
  "7020": "▁Ci",
  "7021": "τεί",
  "7022": "▁spend",
  "7023": "▁Tem",
  "7024": "▁weiß",
  "7025": "▁επίση",
  "7026": "▁inn",
  "7027": "▁볼",
  "7028": "όσ",
  "7029": "▁mist",
  "7030": "▁anti",
  "7031": "▁anybody",
  "7032": "▁French",
  "7033": "▁aument",
  "7034": "▁otra",
  "7035": "▁anyway",
  "7036": "ują",
  "7037": "▁relatório",
  "7038": "ικών",
  "7039": "tschaft",
  "7040": "りました",
  "7041": "▁cad",
  "7042": "▁rég",
  "7043": "▁serve",
  "7044": "λού",
  "7045": "▁vào",
  "7046": "uel",
  "7047": "iff",
  "7048": "عه",
  "7049": "śnie",
  "7050": "σταση",
  "7051": "▁returned",
  "7052": "▁rein",
  "7053": "bec",
  "7054": "inger",
  "7055": "geb",
  "7056": "▁nosso",
  "7057": "stellen",
  "7058": "えて",
  "7059": "▁lots",
  "7060": "▁lose",
  "7061": "▁recent",
  "7062": "anta",
  "7063": "πισ",
  "7064": "▁노",
  "7065": "▁đối",
  "7066": "▁quy",
  "7067": "▁eth",
  "7068": "▁imagine",
  "7069": "liamo",
  "7070": "▁Επί",
  "7071": "▁chair",
  "7072": "겠죠",
  "7073": "▁appar",
  "7074": "▁Which",
  "7075": "▁δύο",
  "7076": "▁medidas",
  "7077": "▁proprio",
  "7078": "▁dollars",
  "7079": "ôt",
  "7080": "▁comisión",
  "7081": "▁cittad",
  "7082": "ez",
  "7083": "▁influence",
  "7084": "▁excited",
  "7085": "▁named",
  "7086": "▁động",
  "7087": "▁effort",
  "7088": "▁Sa",
  "7089": "ませ",
  "7090": "ivamente",
  "7091": "rel",
  "7092": "▁proces",
  "7093": "śl",
  "7094": "▁nhiều",
  "7095": "▁candid",
  "7096": "icip",
  "7097": "▁contract",
  "7098": "▁Mc",
  "7099": "이에요",
  "7100": "ản",
  "7101": "inden",
  "7102": "gin",
  "7103": "▁freedom",
  "7104": "▁paid",
  "7105": "▁values",
  "7106": "▁catch",
  "7107": "▁pouvoir",
  "7108": "▁δικαι",
  "7109": "▁Second",
  "7110": "κο",
  "7111": "▁보면",
  "7112": "▁steps",
  "7113": "▁πρώ",
  "7114": "olit",
  "7115": "▁principal",
  "7116": "▁upd",
  "7117": "nehmen",
  "7118": "▁industri",
  "7119": "▁cuenta",
  "7120": "▁degree",
  "7121": "erse",
  "7122": "enc",
  "7123": "▁ま",
  "7124": "▁nucle",
  "7125": "uld",
  "7126": "cel",
  "7127": "▁πλη",
  "7128": "stell",
  "7129": "▁informe",
  "7130": "▁κύριε",
  "7131": "▁Sal",
  "7132": "uesta",
  "7133": "γω",
  "7134": "dat",
  "7135": "▁growing",
  "7136": "▁spl",
  "7137": "ête",
  "7138": "▁sad",
  "7139": "▁αποτε",
  "7140": "▁required",
  "7141": "▁epis",
  "7142": "rap",
  "7143": "▁heavy",
  "7144": "▁Austral",
  "7145": "▁επα",
  "7146": "▁ciudad",
  "7147": "▁personas",
  "7148": "▁waiting",
  "7149": "▁currently",
  "7150": "▁hoje",
  "7151": "▁conj",
  "7152": "▁transfer",
  "7153": "▁situação",
  "7154": "▁cuest",
  "7155": "이나",
  "7156": "▁Bom",
  "7157": "▁bag",
  "7158": "▁sá",
  "7159": "▁comer",
  "7160": "▁drop",
  "7161": "▁Want",
  "7162": "▁species",
  "7163": "ähr",
  "7164": "▁active",
  "7165": "▁veh",
  "7166": "▁zap",
  "7167": "▁drive",
  "7168": "unden",
  "7169": "▁nível",
  "7170": "▁Your",
  "7171": "▁spoke",
  "7172": "▁celebr",
  "7173": "▁vale",
  "7174": "ship",
  "7175": "▁ihm",
  "7176": "▁medic",
  "7177": "▁الج",
  "7178": "plica",
  "7179": "arm",
  "7180": "▁verg",
  "7181": "▁φο",
  "7182": "acion",
  "7183": "▁advant",
  "7184": "▁alc",
  "7185": "▁lived",
  "7186": "ounds",
  "7187": "▁favorevoli",
  "7188": "τερ",
  "7189": "▁포",
  "7190": "▁wła",
  "7191": "▁żeby",
  "7192": "fica",
  "7193": "▁surr",
  "7194": "▁열",
  "7195": "łem",
  "7196": "▁εγκ",
  "7197": "▁대한",
  "7198": "▁achieve",
  "7199": "▁geme",
  "7200": "▁waż",
  "7201": "igkeit",
  "7202": "▁お",
  "7203": "▁ram",
  "7204": "ỉnh",
  "7205": "▁manera",
  "7206": "▁Europejskiej",
  "7207": "▁sino",
  "7208": "▁raised",
  "7209": "▁reality",
  "7210": "▁ponto",
  "7211": "▁ihn",
  "7212": "▁flex",
  "7213": "▁abst",
  "7214": "σια",
  "7215": "▁교",
  "7216": "▁Fall",
  "7217": "ray",
  "7218": "enz",
  "7219": "▁consult",
  "7220": "▁load",
  "7221": "▁multiple",
  "7222": "▁Mitglied",
  "7223": "▁hou",
  "7224": "▁Acc",
  "7225": "▁phone",
  "7226": "▁weight",
  "7227": "▁Red",
  "7228": "▁다른",
  "7229": "▁sosten",
  "7230": "xto",
  "7231": "ちら",
  "7232": "なん",
  "7233": "τσι",
  "7234": "▁showed",
  "7235": "▁μία",
  "7236": "▁suppose",
  "7237": "▁vont",
  "7238": "▁μεγά",
  "7239": "ox",
  "7240": "▁square",
  "7241": "nis",
  "7242": "▁werk",
  "7243": "ederal",
  "7244": "pués",
  "7245": "▁económ",
  "7246": "change",
  "7247": "▁bul",
  "7248": "▁Cong",
  "7249": "▁gal",
  "7250": "aram",
  "7251": "ns",
  "7252": "weise",
  "7253": "▁Agora",
  "7254": "▁established",
  "7255": "wiąz",
  "7256": "▁피",
  "7257": "▁dia",
  "7258": "▁closed",
  "7259": "mas",
  "7260": "▁rapporteur",
  "7261": "▁impr",
  "7262": "▁technolog",
  "7263": "▁conflict",
  "7264": "▁얼",
  "7265": "▁zm",
  "7266": "하지",
  "7267": "▁quiet",
  "7268": "▁surv",
  "7269": "▁programs",
  "7270": "uras",
  "7271": "▁toutes",
  "7272": "cape",
  "7273": "μένο",
  "7274": "▁Πρόεδρε",
  "7275": "irth",
  "7276": "▁δε",
  "7277": "▁Als",
  "7278": "▁measures",
  "7279": "vrouw",
  "7280": "▁agenda",
  "7281": "▁toute",
  "7282": "aires",
  "7283": "기가",
  "7284": "bes",
  "7285": "wier",
  "7286": "▁orient",
  "7287": "asc",
  "7288": "▁tú",
  "7289": "▁0",
  "7290": "▁와",
  "7291": "▁perce",
  "7292": "▁jeśli",
  "7293": "▁conce",
  "7294": "▁gol",
  "7295": "▁ged",
  "7296": "▁과",
  "7297": "ño",
  "7298": "▁Ir",
  "7299": "▁nuestra",
  "7300": "umb",
  "7301": "▁atta",
  "7302": "▁الف",
  "7303": "aix",
  "7304": "▁wonderful",
  "7305": "▁relação",
  "7306": "▁día",
  "7307": "▁denk",
  "7308": "▁reci",
  "7309": "▁becomes",
  "7310": "accordo",
  "7311": "▁amer",
  "7312": "▁mensen",
  "7313": "▁điều",
  "7314": "▁겁",
  "7315": "owania",
  "7316": "▁produce",
  "7317": "▁하면",
  "7318": "▁członkowsk",
  "7319": "▁user",
  "7320": "▁outros",
  "7321": "▁Unii",
  "7322": "▁addition",
  "7323": "han",
  "7324": "akes",
  "7325": "ría",
  "7326": "▁Σα",
  "7327": "oir",
  "7328": "zent",
  "7329": "elli",
  "7330": "▁196",
  "7331": "▁hey",
  "7332": "rif",
  "7333": "λευ",
  "7334": "▁Face",
  "7335": "ập",
  "7336": "مل",
  "7337": "▁battle",
  "7338": "▁sight",
  "7339": "▁αρ",
  "7340": "ール",
  "7341": "▁campa",
  "7342": "▁gostaria",
  "7343": "▁absol",
  "7344": "▁Met",
  "7345": "erte",
  "7346": "▁그러니까",
  "7347": "▁justice",
  "7348": "▁dicho",
  "7349": "▁거죠",
  "7350": "▁included",
  "7351": "▁Thanks",
  "7352": "▁negoti",
  "7353": "▁apply",
  "7354": "▁마음",
  "7355": "halb",
  "7356": "führ",
  "7357": "▁wide",
  "7358": "▁fant",
  "7359": "▁philosoph",
  "7360": "▁má",
  "7361": "▁daughter",
  "7362": "▁Ale",
  "7363": "ると",
  "7364": "ested",
  "7365": "geben",
  "7366": "▁literally",
  "7367": "▁rien",
  "7368": "▁published",
  "7369": "▁palavra",
  "7370": "▁nostro",
  "7371": "▁joy",
  "7372": "▁Abbiamo",
  "7373": "▁brain",
  "7374": "διο",
  "7375": "▁vocês",
  "7376": "▁일단",
  "7377": "ωση",
  "7378": "▁challenge",
  "7379": "▁siem",
  "7380": "hib",
  "7381": "▁27",
  "7382": "▁Tá",
  "7383": "▁ευχαριστώ",
  "7384": "ahl",
  "7385": "▁levels",
  "7386": "▁laws",
  "7387": "eff",
  "7388": "▁volta",
  "7389": "مي",
  "7390": "▁số",
  "7391": "▁22",
  "7392": "respond",
  "7393": "اء",
  "7394": "ints",
  "7395": "▁anh",
  "7396": "emble",
  "7397": "eler",
  "7398": "▁scale",
  "7399": "▁nearly",
  "7400": "cto",
  "7401": "imp",
  "7402": "▁화",
  "7403": "▁zeggen",
  "7404": "▁cơ",
  "7405": "ya",
  "7406": "▁nasze",
  "7407": "▁sự",
  "7408": "íd",
  "7409": "riage",
  "7410": "▁compromis",
  "7411": "▁próx",
  "7412": "emen",
  "7413": "χουμε",
  "7414": "wodniczący",
  "7415": "▁track",
  "7416": "▁proposal",
  "7417": "rà",
  "7418": "▁bek",
  "7419": "▁gén",
  "7420": "▁analysis",
  "7421": "▁embar",
  "7422": "halten",
  "7423": "▁termos",
  "7424": "emás",
  "7425": "▁Pal",
  "7426": "▁colegas",
  "7427": "bles",
  "7428": "▁communities",
  "7429": "▁númer",
  "7430": "▁acab",
  "7431": "▁legisla",
  "7432": "なく",
  "7433": "iller",
  "7434": "▁killed",
  "7435": "▁join",
  "7436": "▁bod",
  "7437": "▁none",
  "7438": "▁deix",
  "7439": "▁veng",
  "7440": "▁Así",
  "7441": "▁Even",
  "7442": "▁siempre",
  "7443": "▁문제",
  "7444": "itto",
  "7445": "さい",
  "7446": "▁Ben",
  "7447": "▁possiamo",
  "7448": "▁Kon",
  "7449": "▁zoo",
  "7450": "▁διε",
  "7451": "▁ún",
  "7452": "▁syn",
  "7453": "etto",
  "7454": "▁respe",
  "7455": "▁features",
  "7456": "óg",
  "7457": "▁vel",
  "7458": "▁oui",
  "7459": "▁συνεργ",
  "7460": "▁κράτη",
  "7461": "▁zosta",
  "7462": "▁ευρωπαϊκ",
  "7463": "▁wäre",
  "7464": "cture",
  "7465": "▁정말",
  "7466": "aling",
  "7467": "zial",
  "7468": "▁stem",
  "7469": "だけ",
  "7470": "▁reven",
  "7471": "iana",
  "7472": "▁Chair",
  "7473": "ểm",
  "7474": "innen",
  "7475": "▁Lu",
  "7476": "▁teraz",
  "7477": "▁194",
  "7478": "▁Great",
  "7479": "▁standing",
  "7480": "anna",
  "7481": "amer",
  "7482": "▁gotta",
  "7483": "▁provided",
  "7484": "▁acho",
  "7485": "▁suo",
  "7486": "▁install",
  "7487": "▁aujourd",
  "7488": "blica",
  "7489": "wir",
  "7490": "▁참",
  "7491": "ussch",
  "7492": "▁chín",
  "7493": "▁performance",
  "7494": "ache",
  "7495": "▁Συμβ",
  "7496": "▁covered",
  "7497": "orial",
  "7498": "▁hosp",
  "7499": "▁confir",
  "7500": "▁sollte",
  "7501": "▁الك",
  "7502": "▁circum",
  "7503": "▁식",
  "7504": "▁계속",
  "7505": "▁trăm",
  "7506": "▁colleagues",
  "7507": "▁inqu",
  "7508": "ριο",
  "7509": "aría",
  "7510": "▁forms",
  "7511": "▁summer",
  "7512": "▁bow",
  "7513": "▁consid",
  "7514": "▁크",
  "7515": "▁데",
  "7516": "▁avant",
  "7517": "▁selbst",
  "7518": "▁fondament",
  "7519": "▁processo",
  "7520": "▁successful",
  "7521": "▁ustedes",
  "7522": "▁smo",
  "7523": "vés",
  "7524": "▁ki",
  "7525": "pace",
  "7526": "▁Somet",
  "7527": "▁Kto",
  "7528": "▁persone",
  "7529": "▁αξ",
  "7530": "▁hang",
  "7531": "▁éc",
  "7532": "▁laugh",
  "7533": "▁aren",
  "7534": "▁letz",
  "7535": "▁spos",
  "7536": "イン",
  "7537": "omme",
  "7538": "▁jeżeli",
  "7539": "▁estud",
  "7540": "▁الن",
  "7541": "▁easier",
  "7542": "▁horse",
  "7543": "▁safety",
  "7544": "ued",
  "7545": "▁igual",
  "7546": "▁Bra",
  "7547": "▁creating",
  "7548": "▁europä",
  "7549": "▁bunch",
  "7550": "▁rot",
  "7551": "▁thy",
  "7552": "▁phải",
  "7553": "▁Bas",
  "7554": "▁station",
  "7555": "▁Io",
  "7556": "▁ihre",
  "7557": "πά",
  "7558": "▁perspective",
  "7559": "like",
  "7560": "▁grup",
  "7561": "▁intér",
  "7562": "▁wet",
  "7563": "구요",
  "7564": "▁πλα",
  "7565": "iving",
  "7566": "けて",
  "7567": "ilib",
  "7568": "▁voorzitter",
  "7569": "▁schools",
  "7570": "▁cook",
  "7571": "▁tres",
  "7572": "▁strange",
  "7573": "▁psych",
  "7574": "▁permit",
  "7575": "▁separate",
  "7576": "▁Tw",
  "7577": "▁correspond",
  "7578": "▁gru",
  "7579": "uren",
  "7580": "と思います",
  "7581": "▁oil",
  "7582": "▁army",
  "7583": "▁chief",
  "7584": "▁60",
  "7585": "▁cher",
  "7586": "▁pure",
  "7587": "▁heaven",
  "7588": "oring",
  "7589": "▁περί",
  "7590": "nel",
  "7591": "▁slide",
  "7592": "▁background",
  "7593": "raid",
  "7594": "▁اح",
  "7595": "▁style",
  "7596": "ford",
  "7597": "▁Stud",
  "7598": "icher",
  "7599": "▁tenho",
  "7600": "▁έκθεση",
  "7601": "▁spent",
  "7602": "▁somewhere",
  "7603": "woord",
  "7604": "▁ange",
  "7605": "cí",
  "7606": "▁0.",
  "7607": "▁copy",
  "7608": "▁δημο",
  "7609": "▁fro",
  "7610": "▁react",
  "7611": "ịch",
  "7612": "ところ",
  "7613": "▁굉",
  "7614": "▁굉장",
  "7615": "▁lại",
  "7616": "▁vom",
  "7617": "ìn",
  "7618": "▁Há",
  "7619": "▁pani",
  "7620": "▁perman",
  "7621": "▁sweet",
  "7622": "▁alcun",
  "7623": "terior",
  "7624": "▁좋은",
  "7625": "ność",
  "7626": "▁produced",
  "7627": "illeurs",
  "7628": "▁tab",
  "7629": "▁San",
  "7630": "μαι",
  "7631": "▁minor",
  "7632": "kty",
  "7633": "▁이것",
  "7634": "▁Sta",
  "7635": "▁assess",
  "7636": "▁animal",
  "7637": "vare",
  "7638": "▁sera",
  "7639": "▁showing",
  "7640": "ket",
  "7641": "▁swo",
  "7642": "▁argument",
  "7643": "▁names",
  "7644": "▁Val",
  "7645": "▁scri",
  "7646": "▁weak",
  "7647": "하기",
  "7648": "▁elements",
  "7649": "agegen",
  "7650": "▁interes",
  "7651": "ック",
  "7652": "▁necessarily",
  "7653": "▁eles",
  "7654": "wegen",
  "7655": "νον",
  "7656": "▁stories",
  "7657": "▁autre",
  "7658": "ellt",
  "7659": "gd",
  "7660": "▁chapter",
  "7661": "▁efforts",
  "7662": "▁định",
  "7663": "▁mouth",
  "7664": "▁nhà",
  "7665": "ット",
  "7666": "iros",
  "7667": "▁punt",
  "7668": "▁rispetto",
  "7669": "▁receive",
  "7670": "▁recently",
  "7671": "▁Out",
  "7672": "ocks",
  "7673": "▁dove",
  "7674": "▁영상",
  "7675": "▁πώ",
  "7676": "▁chied",
  "7677": "▁같아요",
  "7678": "▁Africa",
  "7679": "ivel",
  "7680": "ícul",
  "7681": "nac",
  "7682": "▁μι",
  "7683": "λάβ",
  "7684": "▁rit",
  "7685": "▁presence",
  "7686": "▁map",
  "7687": "lah",
  "7688": "▁vezes",
  "7689": "▁Este",
  "7690": "▁굉장히",
  "7691": "▁theo",
  "7692": "ート",
  "7693": "bled",
  "7694": "▁번째",
  "7695": "이고",
  "7696": "▁Dec",
  "7697": "λέπ",
  "7698": "▁disci",
  "7699": "▁mam",
  "7700": "▁ví",
  "7701": "▁Chin",
  "7702": "▁처",
  "7703": "▁afraid",
  "7704": "▁devono",
  "7705": "aż",
  "7706": "▁손",
  "7707": "▁돼요",
  "7708": "ullen",
  "7709": "▁tỉnh",
  "7710": "cont",
  "7711": "▁ώ",
  "7712": "▁commercial",
  "7713": "▁kur",
  "7714": "▁activities",
  "7715": "▁잡",
  "7716": "▁strategy",
  "7717": "όσο",
  "7718": "▁choice",
  "7719": "▁chính",
  "7720": "▁τρό",
  "7721": "set",
  "7722": "▁increasing",
  "7723": "▁apenas",
  "7724": "▁grave",
  "7725": "▁vast",
  "7726": "▁mental",
  "7727": "ned",
  "7728": "into",
  "7729": "▁año",
  "7730": "▁possa",
  "7731": "رف",
  "7732": "▁간",
  "7733": "▁echt",
  "7734": "▁ambi",
  "7735": "▁Have",
  "7736": "▁unless",
  "7737": "▁outro",
  "7738": "▁jobs",
  "7739": "▁Hand",
  "7740": "▁Most",
  "7741": "▁Isso",
  "7742": "▁seine",
  "7743": "▁겁니다",
  "7744": "atro",
  "7745": "しました",
  "7746": "▁rose",
  "7747": "▁غ",
  "7748": "▁additional",
  "7749": "▁powerful",
  "7750": "▁foreign",
  "7751": "utz",
  "7752": "▁belong",
  "7753": "▁actions",
  "7754": "▁habit",
  "7755": "osse",
  "7756": "λουμε",
  "7757": "ionali",
  "7758": "▁maken",
  "7759": "▁الب",
  "7760": "imenti",
  "7761": "رك",
  "7762": "▁후",
  "7763": "how",
  "7764": "▁desen",
  "7765": "staaten",
  "7766": "▁przykład",
  "7767": "uurlijk",
  "7768": "▁toward",
  "7769": "▁extremely",
  "7770": "▁billion",
  "7771": "▁democrat",
  "7772": "▁monitor",
  "7773": "zieć",
  "7774": "▁average",
  "7775": "read",
  "7776": "▁majority",
  "7777": "σιμο",
  "7778": "▁baby",
  "7779": "▁belangrijk",
  "7780": "μάτων",
  "7781": "▁partir",
  "7782": "▁pueden",
  "7783": "▁특",
  "7784": "▁journal",
  "7785": "▁expected",
  "7786": "▁Other",
  "7787": "ystem",
  "7788": "▁Ä",
  "7789": "▁praw",
  "7790": "osto",
  "7791": "▁mac",
  "7792": "▁Member",
  "7793": "▁grant",
  "7794": "▁domin",
  "7795": "unda",
  "7796": "▁vul",
  "7797": "dro",
  "7798": "▁nước",
  "7799": "▁passe",
  "7800": "▁damage",
  "7801": "òng",
  "7802": "▁Ü",
  "7803": "▁techni",
  "7804": "▁situación",
  "7805": "▁diferentes",
  "7806": "The",
  "7807": "φαρ",
  "7808": "▁코",
  "7809": "▁كل",
  "7810": "łu",
  "7811": "▁transform",
  "7812": "▁store",
  "7813": "▁lí",
  "7814": "▁Parce",
  "7815": "▁popul",
  "7816": "▁hoy",
  "7817": "▁familiar",
  "7818": "めて",
  "7819": "▁시작",
  "7820": "▁trees",
  "7821": "▁そう",
  "7822": "▁verdade",
  "7823": "▁Ra",
  "7824": "arroll",
  "7825": "▁Tak",
  "7826": "▁cultural",
  "7827": "uir",
  "7828": "▁discut",
  "7829": "▁palabra",
  "7830": "ptember",
  "7831": "한테",
  "7832": "τήσει",
  "7833": "ته",
  "7834": "▁cuanto",
  "7835": "▁nichts",
  "7836": "▁decide",
  "7837": "bber",
  "7838": "▁dział",
  "7839": "▁juste",
  "7840": "▁refle",
  "7841": "▁nacional",
  "7842": "▁dyn",
  "7843": "▁lack",
  "7844": "▁patter",
  "7845": "rant",
  "7846": "▁gather",
  "7847": "▁dont",
  "7848": "▁establish",
  "7849": "▁appeared",
  "7850": "▁Facebook",
  "7851": "▁있을",
  "7852": "aupt",
  "7853": "▁thông",
  "7854": "▁willing",
  "7855": "▁cart",
  "7856": "▁comprom",
  "7857": "▁치",
  "7858": "▁23",
  "7859": "Qué",
  "7860": "▁apart",
  "7861": "▁importance",
  "7862": "▁organis",
  "7863": "▁journey",
  "7864": "sen",
  "7865": "▁zusammen",
  "7866": "▁μην",
  "7867": "▁religious",
  "7868": "burg",
  "7869": "iere",
  "7870": "▁surve",
  "7871": "▁διαδικ",
  "7872": "▁commit",
  "7873": "bile",
  "7874": "▁preoc",
  "7875": "▁28",
  "7876": "▁tengo",
  "7877": "time",
  "7878": "▁chain",
  "7879": "▁Another",
  "7880": "▁państw",
  "7881": "▁déb",
  "7882": "▁dic",
  "7883": "▁bright",
  "7884": "▁zurück",
  "7885": "▁trouble",
  "7886": "▁bilan",
  "7887": "▁proget",
  "7888": "▁quem",
  "7889": "veis",
  "7890": "▁vision",
  "7891": "▁cum",
  "7892": "▁crow",
  "7893": "▁animals",
  "7894": "▁realmente",
  "7895": "iqu",
  "7896": "▁cres",
  "7897": "▁shown",
  "7898": "ciw",
  "7899": "▁alto",
  "7900": "▁νο",
  "7901": "▁rent",
  "7902": "▁nuestro",
  "7903": "▁difí",
  "7904": "▁concerned",
  "7905": "sp",
  "7906": "▁aplic",
  "7907": "▁excell",
  "7908": "γα",
  "7909": "▁kommt",
  "7910": "▁vas",
  "7911": "▁donn",
  "7912": "▁hearing",
  "7913": "▁memory",
  "7914": "▁gosp",
  "7915": "▁onde",
  "7916": "▁veut",
  "7917": "▁examples",
  "7918": "▁cittadini",
  "7919": "▁genau",
  "7920": "▁θέματα",
  "7921": "opp",
  "7922": "▁프",
  "7923": "▁zas",
  "7924": "eling",
  "7925": "itute",
  "7926": "▁euros",
  "7927": "ellow",
  "7928": "quoi",
  "7929": "▁remain",
  "7930": "laim",
  "7931": "char",
  "7932": "▁topic",
  "7933": "رب",
  "7934": "▁doit",
  "7935": "inary",
  "7936": "▁eens",
  "7937": "oto",
  "7938": "▁muj",
  "7939": "σον",
  "7940": "▁Una",
  "7941": "▁coment",
  "7942": "▁사람이",
  "7943": "▁studies",
  "7944": "rees",
  "7945": "hab",
  "7946": "pli",
  "7947": "▁unsere",
  "7948": "▁Estado",
  "7949": "▁investment",
  "7950": "▁workers",
  "7951": "olar",
  "7952": "▁näch",
  "7953": "▁whe",
  "7954": "▁primer",
  "7955": "▁κάνουμε",
  "7956": "schaft",
  "7957": "tas",
  "7958": "▁reb",
  "7959": "▁αντιμε",
  "7960": "▁rev",
  "7961": "autres",
  "7962": "ável",
  "7963": "ishing",
  "7964": "▁trem",
  "7965": "età",
  "7966": "▁larger",
  "7967": "▁Miss",
  "7968": "▁criter",
  "7969": "ρυ",
  "7970": "▁weg",
  "7971": "▁campaign",
  "7972": "▁activity",
  "7973": "▁Kar",
  "7974": "▁Sra",
  "7975": "▁hora",
  "7976": "▁email",
  "7977": "▁youth",
  "7978": "▁필요",
  "7979": "▁warm",
  "7980": "▁날",
  "7981": "cience",
  "7982": "▁print",
  "7983": "▁unser",
  "7984": "▁Earth",
  "7985": "▁communication",
  "7986": "ogue",
  "7987": "▁General",
  "7988": "▁에",
  "7989": "▁possono",
  "7990": "10",
  "7991": "▁mercato",
  "7992": "▁rank",
  "7993": "▁stabil",
  "7994": "▁εφαρ",
  "7995": "▁balance",
  "7996": "▁numer",
  "7997": "▁stock",
  "7998": "zenie",
  "7999": "θν",
  "8000": "يد",
  "8001": "▁roku",
  "8002": "▁aplica",
  "8003": "zeit",
  "8004": "esser",
  "8005": "aled",
  "8006": "▁corner",
  "8007": "eto",
  "8008": "▁recht",
  "8009": "ρήσει",
  "8010": "ams",
  "8011": "▁sect",
  "8012": "rut",
  "8013": "istan",
  "8014": "▁bah",
  "8015": "▁glass",
  "8016": "▁cré",
  "8017": "▁가지",
  "8018": "▁crazy",
  "8019": "▁힘",
  "8020": "▁prend",
  "8021": "▁버",
  "8022": "▁Pat",
  "8023": "Union",
  "8024": "zym",
  "8025": "aint",
  "8026": "▁infrastruct",
  "8027": "▁entend",
  "8028": "μένα",
  "8029": "리는",
  "8030": "berg",
  "8031": "▁dete",
  "8032": "gele",
  "8033": "▁pouco",
  "8034": "▁toe",
  "8035": "▁potre",
  "8036": "▁thir",
  "8037": "▁conna",
  "8038": "▁después",
  "8039": "ivity",
  "8040": "▁feature",
  "8041": "에서는",
  "8042": "▁됐",
  "8043": "▁국",
  "8044": "▁죽",
  "8045": "▁mul",
  "8046": "ittel",
  "8047": "▁contrari",
  "8048": "board",
  "8049": "δει",
  "8050": "▁konk",
  "8051": "▁wyk",
  "8052": "▁certo",
  "8053": "▁목",
  "8054": "▁City",
  "8055": "▁줄",
  "8056": "▁Absten",
  "8057": "▁State",
  "8058": "▁hät",
  "8059": "▁finance",
  "8060": "▁있다",
  "8061": "▁leading",
  "8062": "▁zone",
  "8063": "πτυ",
  "8064": "▁Las",
  "8065": "▁shoot",
  "8066": "χω",
  "8067": "êt",
  "8068": "hora",
  "8069": "▁それ",
  "8070": "▁hung",
  "8071": "▁Get",
  "8072": "▁permet",
  "8073": "▁όχι",
  "8074": "▁여기서",
  "8075": "▁susp",
  "8076": "▁incor",
  "8077": "▁depend",
  "8078": "orno",
  "8079": "rate",
  "8080": "까요",
  "8081": "▁Apro",
  "8082": "▁switch",
  "8083": "▁Mi",
  "8084": "▁ost",
  "8085": "▁birth",
  "8086": "▁agrade",
  "8087": "▁smaller",
  "8088": "▁δηλαδή",
  "8089": "▁compl",
  "8090": "▁challenges",
  "8091": "omas",
  "8092": "wend",
  "8093": "▁institu",
  "8094": "annt",
  "8095": "▁κάποια",
  "8096": "▁Air",
  "8097": "izioni",
  "8098": "▁europejsk",
  "8099": "▁race",
  "8100": "AT",
  "8101": "cos",
  "8102": "▁γίνει",
  "8103": "gue",
  "8104": "▁Progr",
  "8105": "▁blij",
  "8106": "▁Mrs",
  "8107": "▁Many",
  "8108": "▁Did",
  "8109": "▁tir",
  "8110": "▁var",
  "8111": "▁lock",
  "8112": "▁broken",
  "8113": "iare",
  "8114": "kn",
  "8115": "▁명",
  "8116": "▁rod",
  "8117": "▁500",
  "8118": "▁Ét",
  "8119": "μενο",
  "8120": "▁nguy",
  "8121": "▁spect",
  "8122": "▁sytu",
  "8123": "▁math",
  "8124": "vece",
  "8125": "sz",
  "8126": "rir",
  "8127": "auen",
  "8128": "▁forgot",
  "8129": "▁travail",
  "8130": "▁impossible",
  "8131": "φή",
  "8132": "occup",
  "8133": "▁aper",
  "8134": "▁David",
  "8135": "κή",
  "8136": "ader",
  "8137": "otto",
  "8138": "udes",
  "8139": "μέλη",
  "8140": "▁tổ",
  "8141": "cribe",
  "8142": "ois",
  "8143": "▁zak",
  "8144": "vens",
  "8145": "▁folks",
  "8146": "▁sare",
  "8147": "▁rain",
  "8148": "enen",
  "8149": ".,",
  "8150": "▁변",
  "8151": "▁teaching",
  "8152": "êtes",
  "8153": "▁Cour",
  "8154": "▁본",
  "8155": "▁czas",
  "8156": "organ",
  "8157": "たち",
  "8158": "▁religion",
  "8159": "▁Ko",
  "8160": "▁john",
  "8161": "ago",
  "8162": "▁weap",
  "8163": "▁Russia",
  "8164": "▁prev",
  "8165": "schied",
  "8166": "▁electric",
  "8167": "wno",
  "8168": "▁sû",
  "8169": "▁لل",
  "8170": "▁bastante",
  "8171": "▁수도",
  "8172": "ạt",
  "8173": "▁increased",
  "8174": "▁ώστε",
  "8175": "ρών",
  "8176": "▁τέτο",
  "8177": "▁title",
  "8178": "urre",
  "8179": "▁iets",
  "8180": "atto",
  "8181": "▁hi",
  "8182": "▁terrible",
  "8183": "ać",
  "8184": "▁Υπάρχ",
  "8185": "isme",
  "8186": "öff",
  "8187": "▁tháng",
  "8188": "AC",
  "8189": "elled",
  "8190": "bour",
  "8191": "▁많은",
  "8192": "çon",
  "8193": "▁στό",
  "8194": "▁dad",
  "8195": "▁lift",
  "8196": "▁cours",
  "8197": "▁largest",
  "8198": "▁sounds",
  "8199": "▁papel",
  "8200": "▁apoy",
  "8201": "▁sand",
  "8202": "っぱ",
  "8203": "▁speech",
  "8204": "isco",
  "8205": "▁Sm",
  "8206": "▁끝",
  "8207": "▁sang",
  "8208": "いました",
  "8209": "▁λε",
  "8210": "idents",
  "8211": "under",
  "8212": "▁Gen",
  "8213": "▁pieces",
  "8214": "rab",
  "8215": "▁dw",
  "8216": "▁Mart",
  "8217": "oms",
  "8218": "▁revis",
  "8219": "▁fon",
  "8220": "▁σημε",
  "8221": "▁partie",
  "8222": "cles",
  "8223": "▁dimens",
  "8224": "▁critical",
  "8225": "▁μετά",
  "8226": "▁sick",
  "8227": "▁placed",
  "8228": "▁acad",
  "8229": "tered",
  "8230": "amiento",
  "8231": "▁Αν",
  "8232": "▁unique",
  "8233": "▁vier",
  "8234": "dzie",
  "8235": "▁foram",
  "8236": "ereich",
  "8237": "▁stress",
  "8238": "▁session",
  "8239": "▁Ple",
  "8240": "▁pray",
  "8241": "craft",
  "8242": "udar",
  "8243": "▁Deus",
  "8244": "▁rol",
  "8245": "거나",
  "8246": "▁Αλλά",
  "8247": "▁verl",
  "8248": "▁tutte",
  "8249": "▁sous",
  "8250": "▁nobody",
  "8251": "▁desarroll",
  "8252": "ấp",
  "8253": "ません",
  "8254": "▁dej",
  "8255": "bbero",
  "8256": "σμα",
  "8257": "▁đầu",
  "8258": "▁πραγμα",
  "8259": "▁loved",
  "8260": "▁compos",
  "8261": "▁effects",
  "8262": "▁Conselho",
  "8263": "▁exerc",
  "8264": "ρέπει",
  "8265": "erk",
  "8266": "▁leaving",
  "8267": "▁parti",
  "8268": "▁κάποι",
  "8269": "nung",
  "8270": "uge",
  "8271": "처럼",
  "8272": "zus",
  "8273": "▁거야",
  "8274": "▁demonstr",
  "8275": "▁article",
  "8276": "▁Poi",
  "8277": "▁점",
  "8278": "urt",
  "8279": "▁Oui",
  "8280": "rows",
  "8281": "▁crois",
  "8282": "▁giá",
  "8283": "▁tiế",
  "8284": "▁δυνατ",
  "8285": "▁vac",
  "8286": "▁vorrei",
  "8287": "▁peux",
  "8288": "▁wit",
  "8289": "▁seguir",
  "8290": "▁parties",
  "8291": "▁يع",
  "8292": "だった",
  "8293": "▁library",
  "8294": "lands",
  "8295": "▁emer",
  "8296": "▁eigh",
  "8297": "▁4.",
  "8298": "▁vụ",
  "8299": "▁essentially",
  "8300": "volv",
  "8301": "▁natuurlijk",
  "8302": "ounded",
  "8303": "▁worry",
  "8304": "▁inici",
  "8305": "▁anx",
  "8306": "▁maior",
  "8307": "▁honor",
  "8308": "▁vidé",
  "8309": "arc",
  "8310": "▁assez",
  "8311": "▁secondo",
  "8312": "▁bisogna",
  "8313": "▁grew",
  "8314": "▁bốn",
  "8315": "▁pic",
  "8316": "latego",
  "8317": "▁sabe",
  "8318": "Europa",
  "8319": "▁aquilo",
  "8320": "othes",
  "8321": "▁difícil",
  "8322": "▁frag",
  "8323": "▁αγο",
  "8324": "▁maxim",
  "8325": "▁finding",
  "8326": "▁Nach",
  "8327": "ichten",
  "8328": "▁House",
  "8329": "▁종",
  "8330": "▁graph",
  "8331": "▁adesso",
  "8332": "▁programa",
  "8333": "yect",
  "8334": "staten",
  "8335": "리를",
  "8336": "すご",
  "8337": "ening",
  "8338": "▁thời",
  "8339": "▁tel",
  "8340": "▁presentation",
  "8341": "ãos",
  "8342": "cę",
  "8343": "▁Temos",
  "8344": "iteit",
  "8345": "▁experiment",
  "8346": "▁avoid",
  "8347": "hum",
  "8348": "▁اي",
  "8349": "▁grupo",
  "8350": "▁해야",
  "8351": "قد",
  "8352": "▁stopped",
  "8353": "esterd",
  "8354": "▁connected",
  "8355": "▁야",
  "8356": "andon",
  "8357": "▁premier",
  "8358": "tained",
  "8359": "▁Elle",
  "8360": "▁conserv",
  "8361": "▁komen",
  "8362": "じゃない",
  "8363": "▁속",
  "8364": "▁estoy",
  "8365": "κρα",
  "8366": "▁muchas",
  "8367": "▁اخ",
  "8368": "▁details",
  "8369": "자가",
  "8370": "▁girls",
  "8371": "▁양",
  "8372": "▁err",
  "8373": "▁scen",
  "8374": "▁multi",
  "8375": "▁들어가",
  "8376": "▁ανθ",
  "8377": "γραμ",
  "8378": "▁expression",
  "8379": "▁mode",
  "8380": "esome",
  "8381": "▁beso",
  "8382": "icien",
  "8383": "▁fresh",
  "8384": "▁Gre",
  "8385": "▁περιο",
  "8386": "vember",
  "8387": "uite",
  "8388": "▁purs",
  "8389": "kken",
  "8390": "▁independent",
  "8391": "ικού",
  "8392": "accord",
  "8393": "▁benefit",
  "8394": "▁찾",
  "8395": "▁타",
  "8396": "ragen",
  "8397": "esterday",
  "8398": "vano",
  "8399": "owie",
  "8400": "▁primeiro",
  "8401": "▁rom",
  "8402": "▁caught",
  "8403": "ortunately",
  "8404": "rowad",
  "8405": "éta",
  "8406": "▁아이",
  "8407": "▁alguns",
  "8408": "▁hội",
  "8409": "▁Republic",
  "8410": "ائ",
  "8411": "attutto",
  "8412": "έν",
  "8413": "δύ",
  "8414": "▁married",
  "8415": "▁Προ",
  "8416": "▁quiero",
  "8417": "▁βο",
  "8418": "▁Mac",
  "8419": "off",
  "8420": "ppen",
  "8421": "▁jako",
  "8422": "▁Muchas",
  "8423": "▁transl",
  "8424": "▁governo",
  "8425": "▁jeden",
  "8426": "▁core",
  "8427": "▁conscious",
  "8428": "zych",
  "8429": "▁construct",
  "8430": "âu",
  "8431": "▁같이",
  "8432": "▁technical",
  "8433": "▁ought",
  "8434": "▁entered",
  "8435": "lez",
  "8436": "▁الص",
  "8437": "ums",
  "8438": "τικών",
  "8439": "▁derechos",
  "8440": "▁macht",
  "8441": "▁sopr",
  "8442": "▁Está",
  "8443": "▁liqu",
  "8444": "▁fellow",
  "8445": "lem",
  "8446": "▁χώρα",
  "8447": "▁quadro",
  "8448": "▁limited",
  "8449": "▁대해서",
  "8450": "5%",
  "8451": "▁framework",
  "8452": "ảng",
  "8453": "λημα",
  "8454": "▁되어",
  "8455": "▁pyt",
  "8456": "▁ox",
  "8457": "▁Wel",
  "8458": "φορε",
  "8459": "uzione",
  "8460": "amment",
  "8461": "▁UK",
  "8462": "▁weit",
  "8463": "▁interact",
  "8464": "▁erg",
  "8465": "▁occasion",
  "8466": "▁colleghi",
  "8467": "▁zg",
  "8468": "fü",
  "8469": "▁agen",
  "8470": "▁número",
  "8471": "▁existe",
  "8472": "▁competen",
  "8473": "▁heat",
  "8474": "▁script",
  "8475": "owy",
  "8476": "ότι",
  "8477": "▁allows",
  "8478": "▁parlement",
  "8479": "aden",
  "8480": "▁gemacht",
  "8481": "▁Unie",
  "8482": "▁task",
  "8483": "▁leader",
  "8484": "▁passion",
  "8485": "ồi",
  "8486": "άσει",
  "8487": "▁الد",
  "8488": "icit",
  "8489": "▁cier",
  "8490": "▁ancient",
  "8491": "▁betre",
  "8492": "ding",
  "8493": "▁Germany",
  "8494": "εκρι",
  "8495": "aban",
  "8496": "▁zwischen",
  "8497": "onorevole",
  "8498": "▁grazie",
  "8499": "orzyst",
  "8500": "än",
  "8501": "▁II",
  "8502": "▁trata",
  "8503": "▁κοινων",
  "8504": "▁róż",
  "8505": "▁intent",
  "8506": "▁gab",
  "8507": "▁것을",
  "8508": "▁Pri",
  "8509": "▁algunos",
  "8510": "φε",
  "8511": "▁prendre",
  "8512": "▁circumst",
  "8513": "▁وت",
  "8514": "▁Aug",
  "8515": "▁qued",
  "8516": "▁adopted",
  "8517": "amin",
  "8518": "êu",
  "8519": "▁sposób",
  "8520": "ision",
  "8521": "▁parler",
  "8522": "ov",
  "8523": "▁επίπ",
  "8524": "oper",
  "8525": "▁dall",
  "8526": "▁تع",
  "8527": "▁thro",
  "8528": "▁alleen",
  "8529": "▁estim",
  "8530": "ánd",
  "8531": "▁quella",
  "8532": "In",
  "8533": "▁specifically",
  "8534": "قي",
  "8535": "▁regist",
  "8536": "▁aliment",
  "8537": "ième",
  "8538": "▁funding",
  "8539": "▁shape",
  "8540": "▁pleasure",
  "8541": "ização",
  "8542": "▁advantage",
  "8543": "ower",
  "8544": "▁discrim",
  "8545": "▁chciał",
  "8546": "のが",
  "8547": "▁prepared",
  "8548": "▁legislation",
  "8549": "▁luck",
  "8550": "ária",
  "8551": "vos",
  "8552": "▁dispon",
  "8553": "▁뒤",
  "8554": "▁appreciate",
  "8555": "χαν",
  "8556": "▁vois",
  "8557": "▁afterno",
  "8558": "ắc",
  "8559": "▁appropri",
  "8560": "aff",
  "8561": "보다",
  "8562": "▁회",
  "8563": "stüt",
  "8564": "きます",
  "8565": "けれ",
  "8566": "▁espa",
  "8567": "▁option",
  "8568": "▁haber",
  "8569": "▁promis",
  "8570": "▁편",
  "8571": "hin",
  "8572": "▁méd",
  "8573": "olic",
  "8574": "rier",
  "8575": "▁중요",
  "8576": "▁tradition",
  "8577": "▁invece",
  "8578": "ufact",
  "8579": "μιουργ",
  "8580": "▁camera",
  "8581": "▁organizations",
  "8582": "▁emb",
  "8583": "スト",
  "8584": "▁captain",
  "8585": "onom",
  "8586": "▁muchos",
  "8587": "▁drei",
  "8588": "▁표",
  "8589": "▁sequ",
  "8590": "▁parliament",
  "8591": "▁rise",
  "8592": "▁dz",
  "8593": "▁audience",
  "8594": "rom",
  "8595": "▁neither",
  "8596": "▁violence",
  "8597": "▁Να",
  "8598": "ター",
  "8599": "ισμού",
  "8600": "▁supply",
  "8601": "▁nivel",
  "8602": "▁dijo",
  "8603": "▁Präs",
  "8604": "▁spring",
  "8605": "▁bringing",
  "8606": "▁Mitgliedstaaten",
  "8607": "βάλ",
  "8608": "▁dirett",
  "8609": "yal",
  "8610": "▁Israel",
  "8611": "▁σω",
  "8612": "ってる",
  "8613": "▁hành",
  "8614": "のか",
  "8615": "δέ",
  "8616": "▁sociale",
  "8617": "▁środ",
  "8618": "▁promot",
  "8619": "ellement",
  "8620": "ào",
  "8621": "▁Committee",
  "8622": "▁alcuni",
  "8623": "▁description",
  "8624": "▁ellos",
  "8625": "▁School",
  "8626": "▁quelques",
  "8627": "cur",
  "8628": "stenuti",
  "8629": "▁college",
  "8630": "ky",
  "8631": "ξύ",
  "8632": "▁plans",
  "8633": "▁smart",
  "8634": "▁lidstaten",
  "8635": "▁Lat",
  "8636": "▁allen",
  "8637": "▁dry",
  "8638": "▁evident",
  "8639": "▁traditional",
  "8640": "▁bigger",
  "8641": "▁UN",
  "8642": "▁thee",
  "8643": "▁motion",
  "8644": "ですか",
  "8645": "▁Sam",
  "8646": "▁Οι",
  "8647": "▁remark",
  "8648": "ços",
  "8649": "▁skills",
  "8650": "rawd",
  "8651": "▁capacity",
  "8652": "▁policies",
  "8653": "▁sollten",
  "8654": "orgen",
  "8655": "으니까",
  "8656": "anish",
  "8657": "▁autres",
  "8658": "▁fucking",
  "8659": "▁humanos",
  "8660": "▁Teil",
  "8661": "كون",
  "8662": "▁tinha",
  "8663": "zel",
  "8664": "zys",
  "8665": "▁Europeo",
  "8666": "wers",
  "8667": "unci",
  "8668": "agram",
  "8669": "▁veces",
  "8670": "رو",
  "8671": "▁wz",
  "8672": "▁bou",
  "8673": "▁sistem",
  "8674": "▁adopt",
  "8675": "▁favorite",
  "8676": "냐면",
  "8677": "izzazione",
  "8678": "gment",
  "8679": "▁highly",
  "8680": "łą",
  "8681": "▁στοι",
  "8682": "▁Consejo",
  "8683": "owane",
  "8684": "ήτηση",
  "8685": "▁carbon",
  "8686": "▁influen",
  "8687": "▁돈",
  "8688": "▁역",
  "8689": "▁decisions",
  "8690": "vin",
  "8691": "omin",
  "8692": "▁συγκεκρι",
  "8693": "▁soprattutto",
  "8694": "▁changing",
  "8695": "▁march",
  "8696": "ião",
  "8697": "▁ended",
  "8698": "▁decid",
  "8699": "▁chúng",
  "8700": "▁entrepr",
  "8701": "▁interview",
  "8702": "▁expand",
  "8703": "▁eventually",
  "8704": "▁options",
  "8705": "▁neut",
  "8706": "▁πλαίσ",
  "8707": "▁shouldn",
  "8708": "▁estou",
  "8709": "▁τροπολογ",
  "8710": "っている",
  "8711": "▁Rom",
  "8712": "▁ακό",
  "8713": "▁formed",
  "8714": "▁conver",
  "8715": "▁critic",
  "8716": "▁flu",
  "8717": "κει",
  "8718": "▁Bet",
  "8719": "▁imper",
  "8720": "▁appoint",
  "8721": "▁nelle",
  "8722": "▁dress",
  "8723": "くだ",
  "8724": "ulo",
  "8725": "▁chỉ",
  "8726": "▁xu",
  "8727": "▁Aqu",
  "8728": "▁expert",
  "8729": "▁Next",
  "8730": "▁Χ",
  "8731": "▁geze",
  "8732": "▁Thema",
  "8733": "σαν",
  "8734": "▁statement",
  "8735": "▁authority",
  "8736": "▁club",
  "8737": "▁Two",
  "8738": "▁holding",
  "8739": "▁especial",
  "8740": "▁nay",
  "8741": "▁coloc",
  "8742": "▁Señor",
  "8743": "▁afternoon",
  "8744": "aper",
  "8745": "이라",
  "8746": "isas",
  "8747": "oz",
  "8748": "يها",
  "8749": "▁haya",
  "8750": "ualmente",
  "8751": "cimento",
  "8752": "onia",
  "8753": "▁가지고",
  "8754": "▁regol",
  "8755": "▁wp",
  "8756": "▁gehen",
  "8757": "▁Church",
  "8758": "▁σχέση",
  "8759": "▁counter",
  "8760": "▁새",
  "8761": "▁debat",
  "8762": "▁importantes",
  "8763": "oken",
  "8764": "▁manifest",
  "8765": "issions",
  "8766": "χεί",
  "8767": "▁Const",
  "8768": "έβ",
  "8769": "▁운",
  "8770": "عل",
  "8771": "▁status",
  "8772": "υσ",
  "8773": "▁listening",
  "8774": "▁Olha",
  "8775": "▁anymore",
  "8776": "τρα",
  "8777": "▁Om",
  "8778": "▁proyect",
  "8779": "abei",
  "8780": "▁desire",
  "8781": "▁mio",
  "8782": "nam",
  "8783": "▁4,",
  "8784": "▁shut",
  "8785": "▁slowly",
  "8786": "▁responsible",
  "8787": "rian",
  "8788": "▁torn",
  "8789": "▁uwag",
  "8790": "▁présent",
  "8791": "ppo",
  "8792": "▁conduct",
  "8793": "▁helped",
  "8794": "▁nostri",
  "8795": "arsi",
  "8796": "▁standards",
  "8797": "▁έτσι",
  "8798": "▁enemy",
  "8799": "▁March",
  "8800": "▁kw",
  "8801": "▁panel",
  "8802": "感じ",
  "8803": "μένη",
  "8804": "ạo",
  "8805": "▁phát",
  "8806": "▁direitos",
  "8807": "▁Cre",
  "8808": "がある",
  "8809": "▁Jahr",
  "8810": "▁attend",
  "8811": "öglich",
  "8812": "▁helps",
  "8813": "▁Kolle",
  "8814": "▁아무",
  "8815": "▁connection",
  "8816": "▁côté",
  "8817": "▁irgendwie",
  "8818": "▁designed",
  "8819": "▁δημιουργ",
  "8820": "▁stret",
  "8821": "▁완",
  "8822": "▁thực",
  "8823": "▁falta",
  "8824": "려고",
  "8825": "μερα",
  "8826": "ER",
  "8827": "▁quốc",
  "8828": "▁Pod",
  "8829": "▁voll",
  "8830": "▁nunca",
  "8831": "▁δούμε",
  "8832": "ποί",
  "8833": "rari",
  "8834": "▁career",
  "8835": "bres",
  "8836": "▁Mil",
  "8837": "▁district",
  "8838": "ôn",
  "8839": "▁remind",
  "8840": "dire",
  "8841": "sze",
  "8842": "しま",
  "8843": "τούν",
  "8844": "ael",
  "8845": "ieurs",
  "8846": "genommen",
  "8847": "▁request",
  "8848": "cr",
  "8849": "▁mostly",
  "8850": "▁samen",
  "8851": "beiten",
  "8852": "▁schön",
  "8853": "▁skin",
  "8854": "▁bat",
  "8855": "▁cities",
  "8856": "cement",
  "8857": "▁oggi",
  "8858": "▁crime",
  "8859": "agli",
  "8860": "▁esos",
  "8861": "▁opening",
  "8862": "▁cort",
  "8863": "▁그런데",
  "8864": "▁funds",
  "8865": "▁tijd",
  "8866": "ότητε",
  "8867": "▁franc",
  "8868": "▁calling",
  "8869": "▁profession",
  "8870": "▁déf",
  "8871": "▁Afric",
  "8872": "▁described",
  "8873": "ienie",
  "8874": "▁jaar",
  "8875": "▁الخ",
  "8876": "▁programma",
  "8877": "▁More",
  "8878": "▁Europäischen",
  "8879": "▁Cap",
  "8880": "aggio",
  "8881": "▁Janu",
  "8882": "▁형",
  "8883": "▁bilancio",
  "8884": "▁rappres",
  "8885": "▁oportun",
  "8886": "▁highest",
  "8887": "▁incred",
  "8888": "▁fla",
  "8889": "enso",
  "8890": "▁kein",
  "8891": "▁knowing",
  "8892": "ività",
  "8893": "▁medio",
  "8894": "gers",
  "8895": "enia",
  "8896": "▁posso",
  "8897": "stood",
  "8898": "icamente",
  "8899": "▁لي",
  "8900": "cker",
  "8901": "▁worse",
  "8902": "▁chuy",
  "8903": "▁located",
  "8904": "▁τρόπο",
  "8905": "▁Today",
  "8906": "▁credit",
  "8907": "▁segundo",
  "8908": "▁display",
  "8909": "▁rare",
  "8910": "▁remained",
  "8911": "iring",
  "8912": "hos",
  "8913": "▁ain",
  "8914": "▁όταν",
  "8915": "▁forest",
  "8916": "▁overall",
  "8917": "▁Chinese",
  "8918": "▁26",
  "8919": "▁Canada",
  "8920": "▁elim",
  "8921": "는데요",
  "8922": "▁presiden",
  "8923": "▁attra",
  "8924": "▁solutions",
  "8925": "▁System",
  "8926": "▁직",
  "8927": "cken",
  "8928": "ört",
  "8929": "▁reject",
  "8930": "▁emend",
  "8931": "istics",
  "8932": "▁Please",
  "8933": "▁realize",
  "8934": "ctober",
  "8935": "▁mình",
  "8936": "에도",
  "8937": "▁families",
  "8938": "▁lors",
  "8939": "اد",
  "8940": "▁senza",
  "8941": "▁traff",
  "8942": "▁θεω",
  "8943": "▁optim",
  "8944": "▁thi",
  "8945": "▁Hier",
  "8946": "▁While",
  "8947": "▁「",
  "8948": "▁Over",
  "8949": "▁realiz",
  "8950": "στά",
  "8951": "▁Energ",
  "8952": "▁Black",
  "8953": "▁caused",
  "8954": "▁September",
  "8955": "وق",
  "8956": "òn",
  "8957": "▁Ά",
  "8958": "▁materials",
  "8959": "▁relativamente",
  "8960": "agne",
  "8961": "▁unit",
  "8962": "▁bless",
  "8963": "▁release",
  "8964": "▁tuy",
  "8965": "▁hell",
  "8966": "▁만들어",
  "8967": "▁volume",
  "8968": "▁딱",
  "8969": "▁voit",
  "8970": "▁altre",
  "8971": "▁카",
  "8972": "arbeit",
  "8973": "▁belief",
  "8974": "▁políticas",
  "8975": "▁opportunities",
  "8976": "▁Aut",
  "8977": "▁Budd",
  "8978": "oren",
  "8979": "φάλ",
  "8980": "▁doct",
  "8981": "iben",
  "8982": "▁jedn",
  "8983": "▁하겠습니다",
  "8984": "ursos",
  "8985": "にも",
  "8986": "▁East",
  "8987": "▁otherwise",
  "8988": "▁επιχει",
  "8989": "▁współ",
  "8990": "zczeg",
  "8991": "▁따라",
  "8992": "ichter",
  "8993": "ijn",
  "8994": "리가",
  "8995": "usive",
  "8996": "▁dever",
  "8997": "▁principle",
  "8998": "▁sources",
  "8999": "▁dopo",
  "9000": "▁hopefully",
  "9001": "night",
  "9002": "▁rig",
  "9003": "▁보이",
  "9004": "▁zag",
  "9005": "▁shar",
  "9006": "IS",
  "9007": "▁Sol",
  "9008": "▁것은",
  "9009": "▁États",
  "9010": "▁manufact",
  "9011": "▁links",
  "9012": "▁significa",
  "9013": "▁village",
  "9014": "isen",
  "9015": "▁눈",
  "9016": "▁tempor",
  "9017": "▁Vol",
  "9018": "▁nav",
  "9019": "▁causa",
  "9020": "anze",
  "9021": "▁있어",
  "9022": "bier",
  "9023": "▁yesterday",
  "9024": "anow",
  "9025": "▁purch",
  "9026": "▁evil",
  "9027": "▁giust",
  "9028": "▁começ",
  "9029": "▁dys",
  "9030": "▁áre",
  "9031": "rum",
  "9032": "이라는",
  "9033": "▁엄",
  "9034": "▁sides",
  "9035": "bly",
  "9036": "▁coopera",
  "9037": "▁nghìn",
  "9038": "▁큰",
  "9039": "▁Very",
  "9040": "によ",
  "9041": "υβ",
  "9042": "▁ella",
  "9043": "▁μεταξύ",
  "9044": "▁trường",
  "9045": "▁Kom",
  "9046": "CO",
  "9047": "▁constru",
  "9048": "▁sharing",
  "9049": "▁objetivo",
  "9050": "ślę",
  "9051": "▁costs",
  "9052": "▁행",
  "9053": "▁zien",
  "9054": "▁그거",
  "9055": "▁boys",
  "9056": "リー",
  "9057": "▁γε",
  "9058": "▁trung",
  "9059": "▁served",
  "9060": "ardo",
  "9061": "▁sicher",
  "9062": "lik",
  "9063": "sa",
  "9064": "▁Nos",
  "9065": "▁jamais",
  "9066": "▁Count",
  "9067": "▁가장",
  "9068": "▁ital",
  "9069": "▁IS",
  "9070": "urezza",
  "9071": "▁daily",
  "9072": "▁kij",
  "9073": "▁moon",
  "9074": "lung",
  "9075": "ój",
  "9076": "▁neste",
  "9077": "änder",
  "9078": "inst",
  "9079": "appe",
  "9080": "▁settore",
  "9081": "pad",
  "9082": "▁lou",
  "9083": "▁cooperation",
  "9084": "▁dov",
  "9085": "ências",
  "9086": "nder",
  "9087": "▁August",
  "9088": "▁hate",
  "9089": "arten",
  "9090": "▁Cu",
  "9091": "▁هو",
  "9092": "rative",
  "9093": "jekt",
  "9094": "▁huy",
  "9095": "▁responsibility",
  "9096": "▁internal",
  "9097": "ilig",
  "9098": "▁comunque",
  "9099": "νώ",
  "9100": "ộc",
  "9101": "▁その",
  "9102": "ằng",
  "9103": "▁uses",
  "9104": "▁procedure",
  "9105": "▁portanto",
  "9106": "▁fab",
  "9107": "orter",
  "9108": "ju",
  "9109": "▁finished",
  "9110": "▁vrai",
  "9111": "▁entirely",
  "9112": "▁deput",
  "9113": "ệnh",
  "9114": "▁regions",
  "9115": "▁ice",
  "9116": "▁estaba",
  "9117": "▁wear",
  "9118": "▁winter",
  "9119": "ded",
  "9120": "▁authorities",
  "9121": "▁zullen",
  "9122": "▁geben",
  "9123": "▁Czy",
  "9124": "iett",
  "9125": "▁trzeba",
  "9126": "▁Φ",
  "9127": "▁iron",
  "9128": "▁laid",
  "9129": "▁fighting",
  "9130": "▁snow",
  "9131": "ρική",
  "9132": "gypt",
  "9133": "ήμερα",
  "9134": "▁forte",
  "9135": "▁assign",
  "9136": "▁wissen",
  "9137": "antal",
  "9138": "▁Den",
  "9139": "▁vend",
  "9140": "▁Off",
  "9141": "▁diret",
  "9142": "▁proceed",
  "9143": "▁되고",
  "9144": "▁murder",
  "9145": "▁Πα",
  "9146": "▁był",
  "9147": "the",
  "9148": "▁archite",
  "9149": "▁politique",
  "9150": "hy",
  "9151": "▁coast",
  "9152": "itial",
  "9153": "ども",
  "9154": "▁medical",
  "9155": "yez",
  "9156": "bling",
  "9157": "θηκε",
  "9158": "▁krij",
  "9159": "weg",
  "9160": "rá",
  "9161": "▁walking",
  "9162": "▁moral",
  "9163": "▁objetivos",
  "9164": "▁includes",
  "9165": "▁International",
  "9166": "▁scene",
  "9167": "▁الذ",
  "9168": "▁mówi",
  "9169": "رج",
  "9170": "atre",
  "9171": "icio",
  "9172": "omo",
  "9173": "▁Alex",
  "9174": "χό",
  "9175": "▁helping",
  "9176": "viamente",
  "9177": "▁personnes",
  "9178": "▁było",
  "9179": "χύ",
  "9180": "▁Ukra",
  "9181": "▁shared",
  "9182": "▁discovered",
  "9183": "▁stone",
  "9184": "▁obst",
  "9185": "tanto",
  "9186": "▁matters",
  "9187": "▁accomp",
  "9188": "γρά",
  "9189": "▁χα",
  "9190": "▁Amend",
  "9191": "▁paese",
  "9192": "osh",
  "9193": "ため",
  "9194": "oty",
  "9195": "んですけど",
  "9196": "▁prove",
  "9197": "▁filled",
  "9198": "▁심",
  "9199": "ented",
  "9200": "▁released",
  "9201": "▁TV",
  "9202": "▁constant",
  "9203": "ault",
  "9204": "▁collection",
  "9205": "ieron",
  "9206": "▁jun",
  "9207": "이다",
  "9208": "▁thick",
  "9209": "▁individuals",
  "9210": "▁هذه",
  "9211": "eron",
  "9212": "▁users",
  "9213": "▁proposed",
  "9214": "▁federal",
  "9215": "▁colega",
  "9216": "▁cod",
  "9217": "▁초",
  "9218": "▁planet",
  "9219": "urer",
  "9220": "▁believed",
  "9221": "▁sûr",
  "9222": "▁tran",
  "9223": "▁갖",
  "9224": "▁mé",
  "9225": "▁essay",
  "9226": "▁keeping",
  "9227": "oles",
  "9228": "▁zelf",
  "9229": "▁hub",
  "9230": "ίκ",
  "9231": "icios",
  "9232": "▁totally",
  "9233": "▁애",
  "9234": "▁font",
  "9235": "▁rail",
  "9236": "▁κάνει",
  "9237": "▁Hum",
  "9238": "▁paar",
  "9239": "▁đây",
  "9240": "▁Sat",
  "9241": "▁harm",
  "9242": "▁edge",
  "9243": "▁génér",
  "9244": "▁conseguir",
  "9245": "ξουμε",
  "9246": "▁existing",
  "9247": "▁Qual",
  "9248": "▁lev",
  "9249": "ziała",
  "9250": "▁toen",
  "9251": "▁κατάσταση",
  "9252": "▁rul",
  "9253": "essen",
  "9254": "سم",
  "9255": "▁Ρ",
  "9256": "▁grat",
  "9257": "▁hablar",
  "9258": "vely",
  "9259": "▁lands",
  "9260": "enie",
  "9261": "▁보시면",
  "9262": "▁αποφ",
  "9263": "ES",
  "9264": "▁cose",
  "9265": "▁elev",
  "9266": "▁reference",
  "9267": "▁notes",
  "9268": "▁libert",
  "9269": "▁Internet",
  "9270": "▁mulher",
  "9271": "▁fixed",
  "9272": "▁possibly",
  "9273": "gende",
  "9274": "▁biggest",
  "9275": "ativas",
  "9276": "what",
  "9277": "▁Danke",
  "9278": "▁east",
  "9279": "kom",
  "9280": "eper",
  "9281": "▁aspects",
  "9282": "ench",
  "9283": "urance",
  "9284": "▁응",
  "9285": "▁planning",
  "9286": "▁finish",
  "9287": "▁vedere",
  "9288": "▁이상",
  "9289": "▁phase",
  "9290": "▁spiritual",
  "9291": "▁χω",
  "9292": "ような",
  "9293": "▁weird",
  "9294": "▁Πρέπει",
  "9295": "▁đang",
  "9296": "▁Hist",
  "9297": "▁infrastructure",
  "9298": "▁utilizz",
  "9299": "gesch",
  "9300": "▁Num",
  "9301": "▁bord",
  "9302": "▁pierws",
  "9303": "raf",
  "9304": "▁vice",
  "9305": "▁fel",
  "9306": "ywat",
  "9307": "ulate",
  "9308": "▁χρησιμο",
  "9309": "▁ning",
  "9310": "adamente",
  "9311": "▁plen",
  "9312": "▁hợ",
  "9313": "▁questões",
  "9314": "rid",
  "9315": "▁reduce",
  "9316": "gency",
  "9317": "▁dese",
  "9318": "bito",
  "9319": "τώ",
  "9320": "▁temperature",
  "9321": "▁przedstaw",
  "9322": "▁fourth",
  "9323": "▁proto",
  "9324": "▁Quando",
  "9325": "▁금",
  "9326": "ashion",
  "9327": "▁symbol",
  "9328": "▁mai",
  "9329": "▁scientific",
  "9330": "▁Super",
  "9331": "▁waste",
  "9332": "▁diritto",
  "9333": "nell",
  "9334": "▁저희",
  "9335": "ática",
  "9336": "▁darauf",
  "9337": "open",
  "9338": "▁breath",
  "9339": "▁Τα",
  "9340": "usa",
  "9341": "τία",
  "9342": "▁congr",
  "9343": "▁Roman",
  "9344": "ổi",
  "9345": "estic",
  "9346": "▁April",
  "9347": "ように",
  "9348": "▁thousands",
  "9349": "▁views",
  "9350": "?\"",
  "9351": "▁Pass",
  "9352": "▁income",
  "9353": "▁comunica",
  "9354": "▁walked",
  "9355": "▁hợp",
  "9356": "ording",
  "9357": "gru",
  "9358": "▁coisas",
  "9359": "▁sviluppo",
  "9360": "ラン",
  "9361": "▁allez",
  "9362": "▁seus",
  "9363": "▁Parlement",
  "9364": "ηρε",
  "9365": "κλη",
  "9366": "▁Jun",
  "9367": "ếu",
  "9368": "▁그게",
  "9369": "▁bell",
  "9370": "oten",
  "9371": "▁dati",
  "9372": "ください",
  "9373": "▁obiett",
  "9374": "▁High",
  "9375": "▁συζήτηση",
  "9376": "▁모든",
  "9377": "▁Colle",
  "9378": "ιστεύ",
  "9379": "▁χρή",
  "9380": "يف",
  "9381": "▁première",
  "9382": "▁gek",
  "9383": "▁Pas",
  "9384": "lagen",
  "9385": "▁γνω",
  "9386": "▁série",
  "9387": "▁depart",
  "9388": "avoir",
  "9389": "كل",
  "9390": "▁becoming",
  "9391": "ziej",
  "9392": "comm",
  "9393": "σή",
  "9394": "▁abord",
  "9395": "▁mira",
  "9396": "▁domanda",
  "9397": "▁rip",
  "9398": "▁ano",
  "9399": "▁raise",
  "9400": "につ",
  "9401": "▁αντιμετω",
  "9402": "▁klar",
  "9403": "esp",
  "9404": "▁80",
  "9405": "λαμβ",
  "9406": "▁union",
  "9407": "▁delight",
  "9408": "▁Mod",
  "9409": "▁mobil",
  "9410": "ionen",
  "9411": "ibile",
  "9412": "▁models",
  "9413": "▁professional",
  "9414": "▁dort",
  "9415": "▁προστα",
  "9416": "▁tomorrow",
  "9417": "▁Esto",
  "9418": "▁June",
  "9419": "▁vraag",
  "9420": "▁starts",
  "9421": "▁prest",
  "9422": "▁Grund",
  "9423": "▁instruct",
  "9424": "bing",
  "9425": "▁이야",
  "9426": "▁neighbor",
  "9427": "alf",
  "9428": "▁οδη",
  "9429": "▁existence",
  "9430": "▁reflect",
  "9431": "▁Jetzt",
  "9432": "▁player",
  "9433": "wel",
  "9434": "▁Indian",
  "9435": "▁ohne",
  "9436": "bio",
  "9437": "▁boat",
  "9438": "▁hàng",
  "9439": "▁guar",
  "9440": "▁veux",
  "9441": "었습니다",
  "9442": "▁Bible",
  "9443": "immt",
  "9444": "maal",
  "9445": "▁wurden",
  "9446": "▁burn",
  "9447": "▁mevrouw",
  "9448": "▁zwar",
  "9449": "▁Ihnen",
  "9450": "▁Κατά",
  "9451": "cido",
  "9452": "▁hơn",
  "9453": "▁input",
  "9454": "える",
  "9455": "heure",
  "9456": "ạm",
  "9457": "iele",
  "9458": "▁οργ",
  "9459": "▁będą",
  "9460": "▁stim",
  "9461": "▁sommes",
  "9462": "▁tratta",
  "9463": "▁Sor",
  "9464": "emment",
  "9465": "들의",
  "9466": "lip",
  "9467": "▁fonction",
  "9468": "▁brauchen",
  "9469": "▁Europeu",
  "9470": "▁없는",
  "9471": "▁nin",
  "9472": "▁메",
  "9473": "aniu",
  "9474": "esen",
  "9475": "▁rand",
  "9476": "▁millions",
  "9477": "iez",
  "9478": "▁problème",
  "9479": "ifs",
  "9480": "autre",
  "9481": "▁brit",
  "9482": "▁천",
  "9483": "▁silence",
  "9484": "▁아니라",
  "9485": "▁봐",
  "9486": "ライ",
  "9487": "▁möglich",
  "9488": "based",
  "9489": "ieli",
  "9490": "▁Green",
  "9491": "▁intens",
  "9492": "▁quelle",
  "9493": "▁rough",
  "9494": "▁αποχέ",
  "9495": "▁aten",
  "9496": "▁lud",
  "9497": "▁interpret",
  "9498": "ουλίου",
  "9499": "▁tecnolog",
  "9500": "▁stars",
  "9501": "▁older",
  "9502": "▁bele",
  "9503": "rog",
  "9504": "▁turning",
  "9505": "▁sicurezza",
  "9506": "▁enmi",
  "9507": "ίσει",
  "9508": "cean",
  "9509": "▁되면",
  "9510": "▁council",
  "9511": "▁βασ",
  "9512": "▁depuis",
  "9513": "▁root",
  "9514": "aur",
  "9515": "▁hö",
  "9516": "▁Mag",
  "9517": "issance",
  "9518": "rawdę",
  "9519": "▁Bien",
  "9520": "blico",
  "9521": "▁besoin",
  "9522": "▁!",
  "9523": "iforn",
  "9524": "atore",
  "9525": "▁Once",
  "9526": "▁beste",
  "9527": "▁natur",
  "9528": "▁beat",
  "9529": "▁November",
  "9530": "▁Phil",
  "9531": "されて",
  "9532": "NA",
  "9533": "▁ث",
  "9534": "▁poter",
  "9535": "▁còn",
  "9536": "▁mim",
  "9537": "▁ży",
  "9538": "▁preced",
  "9539": "▁때는",
  "9540": "▁classes",
  "9541": "▁compared",
  "9542": "▁episode",
  "9543": "▁sky",
  "9544": "λλον",
  "9545": "▁languages",
  "9546": "▁abandon",
  "9547": "▁parle",
  "9548": "▁developing",
  "9549": "▁gele",
  "9550": "▁είπα",
  "9551": "▁flight",
  "9552": "▁리",
  "9553": "▁persona",
  "9554": "▁principles",
  "9555": "ここ",
  "9556": "▁Rel",
  "9557": "▁syst",
  "9558": "▁parla",
  "9559": "ρίνεται",
  "9560": "▁insist",
  "9561": "▁façon",
  "9562": "▁الان",
  "9563": "とな",
  "9564": "▁casi",
  "9565": "▁Gal",
  "9566": "aah",
  "9567": "iciones",
  "9568": "▁5.",
  "9569": "▁socied",
  "9570": "antic",
  "9571": "▁pregunta",
  "9572": "ấn",
  "9573": "ود",
  "9574": "▁넣",
  "9575": "vous",
  "9576": "▁Esta",
  "9577": "▁primary",
  "9578": "atically",
  "9579": "▁Emp",
  "9580": "▁inj",
  "9581": "illi",
  "9582": "▁impress",
  "9583": "▁university",
  "9584": "▁understood",
  "9585": "gno",
  "9586": "icia",
  "9587": "▁behavior",
  "9588": "isher",
  "9589": "▁suf",
  "9590": "▁seconds",
  "9591": "▁καλύτε",
  "9592": "▁那",
  "9593": "▁aid",
  "9594": "▁materia",
  "9595": "▁Sin",
  "9596": "▁baj",
  "9597": "▁χρει",
  "9598": "pis",
  "9599": "▁hospital",
  "9600": "▁donner",
  "9601": "ville",
  "9602": "▁Cer",
  "9603": "▁lượng",
  "9604": "▁opposite",
  "9605": "mm",
  "9606": "▁colum",
  "9607": "▁평",
  "9608": "▁crise",
  "9609": "unal",
  "9610": "▁która",
  "9611": "▁empe",
  "9612": "▁llam",
  "9613": "▁nghiệ",
  "9614": "▁criminal",
  "9615": "▁Έχουμε",
  "9616": "ρακ",
  "9617": "▁detail",
  "9618": "▁dedic",
  "9619": "ception",
  "9620": "▁wealth",
  "9621": "▁hors",
  "9622": "▁plants",
  "9623": "▁grace",
  "9624": "▁January",
  "9625": "here",
  "9626": "usschuss",
  "9627": "▁κι",
  "9628": "らい",
  "9629": "▁yellow",
  "9630": "lä",
  "9631": "▁:",
  "9632": "έρα",
  "9633": "▁radio",
  "9634": "▁initial",
  "9635": "▁나는",
  "9636": "▁arrang",
  "9637": "▁excellent",
  "9638": "yczą",
  "9639": "اه",
  "9640": "▁올라",
  "9641": "▁presente",
  "9642": "▁길",
  "9643": "▁ther",
  "9644": "▁official",
  "9645": "▁sáu",
  "9646": "▁pair",
  "9647": "▁νομίζω",
  "9648": "esehen",
  "9649": "▁popraw",
  "9650": "imer",
  "9651": "rateg",
  "9652": "▁parole",
  "9653": "▁Γιατί",
  "9654": "ẫn",
  "9655": "فس",
  "9656": "▁Cam",
  "9657": "▁remains",
  "9658": "olare",
  "9659": "▁greatest",
  "9660": "▁compte",
  "9661": "▁soltanto",
  "9662": "▁verse",
  "9663": "아서",
  "9664": "▁associated",
  "9665": "▁300",
  "9666": "▁dotyczą",
  "9667": "▁inner",
  "9668": "▁regulation",
  "9669": "rated",
  "9670": "▁hen",
  "9671": "▁hyp",
  "9672": "▁χρησιμοποι",
  "9673": "▁czę",
  "9674": "▁digo",
  "9675": "▁sì",
  "9676": "▁انا",
  "9677": "▁introduced",
  "9678": "▁agreed",
  "9679": "▁solidar",
  "9680": "▁클",
  "9681": "▁Mont",
  "9682": "thoud",
  "9683": "▁altro",
  "9684": "τύ",
  "9685": "▁Rem",
  "9686": "▁tế",
  "9687": "ushing",
  "9688": "▁customers",
  "9689": "▁trick",
  "9690": "▁regr",
  "9691": "▁νομο",
  "9692": "atamente",
  "9693": "▁difficile",
  "9694": "νια",
  "9695": "▁hid",
  "9696": "wood",
  "9697": "▁environmental",
  "9698": "owej",
  "9699": "▁english",
  "9700": "▁Estamos",
  "9701": "όμαστε",
  "9702": "▁Tut",
  "9703": "▁proud",
  "9704": "▁pand",
  "9705": "▁degrees",
  "9706": "▁모르",
  "9707": "▁generation",
  "9708": "▁emph",
  "9709": "ujemy",
  "9710": "▁αντα",
  "9711": "▁ante",
  "9712": "house",
  "9713": "▁confront",
  "9714": "hington",
  "9715": "vé",
  "9716": "بر",
  "9717": "▁subscribe",
  "9718": "ibles",
  "9719": "▁Comp",
  "9720": "zlich",
  "9721": "▁στου",
  "9722": "rado",
  "9723": "▁dealing",
  "9724": "▁뭔",
  "9725": "▁wys",
  "9726": "▁Bank",
  "9727": "▁During",
  "9728": "▁denke",
  "9729": "▁feels",
  "9730": "▁December",
  "9731": "gent",
  "9732": "لام",
  "9733": "▁truc",
  "9734": "▁letters",
  "9735": "▁senhora",
  "9736": "▁musimy",
  "9737": "▁könnte",
  "9738": "▁90",
  "9739": "▁atra",
  "9740": "▁Wort",
  "9741": "▁pien",
  "9742": "▁bisogno",
  "9743": "▁images",
  "9744": "▁ذ",
  "9745": "VID",
  "9746": "▁hero",
  "9747": "γε",
  "9748": "▁Sono",
  "9749": "▁Sur",
  "9750": "▁sull",
  "9751": "▁Central",
  "9752": "▁election",
  "9753": "▁επίπεδο",
  "9754": "▁ging",
  "9755": "▁quarter",
  "9756": "▁zd",
  "9757": "▁anders",
  "9758": "▁약간",
  "9759": "▁dés",
  "9760": "▁Gl",
  "9761": "διαίτε",
  "9762": "▁membres",
  "9763": "▁Commissioner",
  "9764": "icken",
  "9765": "ifornia",
  "9766": "▁dá",
  "9767": "▁nochmal",
  "9768": "▁όσον",
  "9769": "ことが",
  "9770": "▁Australia",
  "9771": "▁외",
  "9772": "▁kont",
  "9773": "▁broke",
  "9774": "▁AP",
  "9775": "▁Frank",
  "9776": "ßer",
  "9777": "ît",
  "9778": "▁właśnie",
  "9779": "▁ak",
  "9780": "▁Obrigado",
  "9781": "▁compre",
  "9782": "▁enfin",
  "9783": "▁risult",
  "9784": "riff",
  "9785": "▁sui",
  "9786": "▁exchange",
  "9787": "▁construction",
  "9788": "▁2014",
  "9789": "▁twee",
  "9790": "▁rub",
  "9791": "▁otras",
  "9792": "▁slightly",
  "9793": "▁kick",
  "9794": "γου",
  "9795": "▁dipl",
  "9796": "▁param",
  "9797": "▁forced",
  "9798": "▁αυτού",
  "9799": "▁Paris",
  "9800": "▁flat",
  "9801": "▁corpor",
  "9802": "iny",
  "9803": "▁vão",
  "9804": "▁tomar",
  "9805": "▁replac",
  "9806": "▁rag",
  "9807": "▁objects",
  "9808": "▁Prés",
  "9809": "▁Pra",
  "9810": "γματα",
  "9811": "yz",
  "9812": "▁patient",
  "9813": "▁fruit",
  "9814": "▁finans",
  "9815": "λό",
  "9816": "▁presented",
  "9817": "▁아주",
  "9818": "ersch",
  "9819": "▁intelle",
  "9820": "▁cant",
  "9821": "▁lực",
  "9822": "pero",
  "9823": "▁100%",
  "9824": "▁Serv",
  "9825": "▁Unidos",
  "9826": "▁lit",
  "9827": "ắt",
  "9828": "▁pesca",
  "9829": "▁εγώ",
  "9830": "▁conoc",
  "9831": "▁industrial",
  "9832": "▁October",
  "9833": "aves",
  "9834": "▁manage",
  "9835": "θο",
  "9836": "وه",
  "9837": "▁marriage",
  "9838": "▁Με",
  "9839": "field",
  "9840": "▁Jah",
  "9841": "▁Arbeit",
  "9842": "▁champ",
  "9843": "▁Islam",
  "9844": "▁Ap",
  "9845": "isti",
  "9846": "▁はい",
  "9847": "▁error",
  "9848": "▁można",
  "9849": "acja",
  "9850": "▁stor",
  "9851": "▁quero",
  "9852": "▁tiếp",
  "9853": "▁deut",
  "9854": "▁conhe",
  "9855": "▁vulner",
  "9856": "▁possibilità",
  "9857": "▁κάποιε",
  "9858": "oul",
  "9859": "▁Us",
  "9860": "▁disease",
  "9861": "▁seat",
  "9862": "▁adapt",
  "9863": "▁nuestros",
  "9864": "ομισ",
  "9865": "ρηση",
  "9866": "uwe",
  "9867": "zego",
  "9868": "arlo",
  "9869": "▁Euh",
  "9870": "▁coach",
  "9871": "▁principio",
  "9872": "árias",
  "9873": "▁focused",
  "9874": "μένε",
  "9875": "ποίηση",
  "9876": "▁αγορά",
  "9877": "▁naprawdę",
  "9878": "▁false",
  "9879": "▁internacional",
  "9880": "enomen",
  "9881": "ización",
  "9882": "▁truly",
  "9883": "▁guid",
  "9884": "▁IT",
  "9885": "▁succeed",
  "9886": "▁intelligence",
  "9887": "▁resolution",
  "9888": "▁Western",
  "9889": "▁sulle",
  "9890": "iday",
  "9891": "▁stellen",
  "9892": "▁variety",
  "9893": "ριν",
  "9894": "▁채",
  "9895": "▁además",
  "9896": "▁kurz",
  "9897": "▁treatment",
  "9898": "▁방법",
  "9899": "▁À",
  "9900": "▁veramente",
  "9901": "ース",
  "9902": "▁dự",
  "9903": "▁Int",
  "9904": "▁infin",
  "9905": "▁applied",
  "9906": "▁이번",
  "9907": "ändern",
  "9908": "くな",
  "9909": "▁competit",
  "9910": "▁5,",
  "9911": "▁넘",
  "9912": "▁duty",
  "9913": "▁relation",
  "9914": "▁kid",
  "9915": "▁benefits",
  "9916": "▁possibile",
  "9917": "▁tutta",
  "9918": "▁nuclear",
  "9919": "▁encourage",
  "9920": "▁methods",
  "9921": "▁είμαστε",
  "9922": "▁nhưng",
  "9923": "▁Del",
  "9924": "▁players",
  "9925": "alia",
  "9926": "άση",
  "9927": "▁bodies",
  "9928": "zone",
  "9929": "▁gam",
  "9930": "▁leaves",
  "9931": "zyć",
  "9932": "▁Contrari",
  "9933": "iciente",
  "9934": "見て",
  "9935": "▁rum",
  "9936": "keiten",
  "9937": "▁lý",
  "9938": "▁minuto",
  "9939": "uno",
  "9940": "▁anno",
  "9941": "▁savoir",
  "9942": "▁flag",
  "9943": "▁plain",
  "9944": "aded",
  "9945": "jos",
  "9946": "▁três",
  "9947": "いく",
  "9948": "ateur",
  "9949": "▁thế",
  "9950": "ござ",
  "9951": "▁diverse",
  "9952": "θα",
  "9953": "▁beauty",
  "9954": "▁Bericht",
  "9955": "▁arrived",
  "9956": "▁sap",
  "9957": "▁afford",
  "9958": "▁formal",
  "9959": "اف",
  "9960": "▁devemos",
  "9961": "▁tells",
  "9962": "▁ents",
  "9963": "▁declar",
  "9964": "▁Wer",
  "9965": "やって",
  "9966": "cut",
  "9967": "atique",
  "9968": "mine",
  "9969": "▁advice",
  "9970": "ält",
  "9971": "cific",
  "9972": "▁grab",
  "9973": "▁extent",
  "9974": "oking",
  "9975": "▁powers",
  "9976": "▁reve",
  "9977": "cj",
  "9978": "▁frente",
  "9979": "▁Enth",
  "9980": "▁ει",
  "9981": "▁weather",
  "9982": "まあ",
  "9983": "▁skill",
  "9984": "▁passer",
  "9985": "▁먼",
  "9986": "úc",
  "9987": "▁quot",
  "9988": "ös",
  "9989": "πι",
  "9990": "▁Pet",
  "9991": "▁novo",
  "9992": "▁joined",
  "9993": "▁dynam",
  "9994": "▁jack",
  "9995": "▁wol",
  "9996": "▁instant",
  "9997": "▁Tenemos",
  "9998": "▁친",
  "9999": "▁mud",
  "10000": "▁motiv",
  "10001": "▁banc",
  "10002": "iga",
  "10003": "▁fondo",
  "10004": "μένου",
  "10005": "▁Bür",
  "10006": "agon",
  "10007": "▁Center",
  "10008": "▁encontrar",
  "10009": "▁marg",
  "10010": "▁Govern",
  "10011": "▁signal",
  "10012": "▁onto",
  "10013": "▁eines",
  "10014": "▁gebru",
  "10015": "▁συνεργασία",
  "10016": "ossen",
  "10017": "▁estes",
  "10018": "▁되게",
  "10019": "▁London",
  "10020": "可以",
  "10021": "ussen",
  "10022": "ciendo",
  "10023": "▁70",
  "10024": "▁certa",
  "10025": "▁desta",
  "10026": "하여",
  "10027": "▁goals",
  "10028": "▁discipl",
  "10029": "φορία",
  "10030": "▁δώ",
  "10031": "▁risol",
  "10032": "▁figures",
  "10033": "▁guarante",
  "10034": "TA",
  "10035": "▁라",
  "10036": "νού",
  "10037": "نت",
  "10038": "rad",
  "10039": "▁esas",
  "10040": "▁garden",
  "10041": "▁투",
  "10042": "ieważ",
  "10043": "▁terra",
  "10044": "▁함",
  "10045": "▁Prime",
  "10046": "▁takie",
  "10047": "▁applications",
  "10048": "している",
  "10049": "asp",
  "10050": "liwo",
  "10051": "▁shadow",
  "10052": "don",
  "10053": "▁calls",
  "10054": "δελ",
  "10055": "▁Vir",
  "10056": "▁nossos",
  "10057": "▁zro",
  "10058": "▁phòng",
  "10059": "zić",
  "10060": "▁problemi",
  "10061": "▁Tom",
  "10062": "nik",
  "10063": "beeld",
  "10064": "▁factor",
  "10065": "▁CE",
  "10066": "ämlich",
  "10067": "altro",
  "10068": "▁defend",
  "10069": "▁BC",
  "10070": "eurs",
  "10071": "prochen",
  "10072": "▁높",
  "10073": "▁Hello",
  "10074": "▁thirty",
  "10075": "没有",
  "10076": "oby",
  "10077": "▁Rad",
  "10078": "▁tão",
  "10079": "teil",
  "10080": "▁μπορέ",
  "10081": "ング",
  "10082": "▁African",
  "10083": "▁위해서",
  "10084": "▁Dar",
  "10085": "▁vit",
  "10086": "▁practices",
  "10087": "▁miglior",
  "10088": "▁예수",
  "10089": "▁kho",
  "10090": "cas",
  "10091": "▁batter",
  "10092": "cej",
  "10093": "▁Prof",
  "10094": "▁careful",
  "10095": "▁mere",
  "10096": "▁συνα",
  "10097": "▁wond",
  "10098": "▁richtig",
  "10099": "يم",
  "10100": "▁ficar",
  "10101": "▁odd",
  "10102": "ieg",
  "10103": "이죠",
  "10104": "▁valor",
  "10105": "▁gall",
  "10106": "ocrat",
  "10107": "▁라고",
  "10108": "▁제품",
  "10109": "▁Minist",
  "10110": "▁nouve",
  "10111": "▁gros",
  "10112": "▁muitas",
  "10113": "يت",
  "10114": "▁Ya",
  "10115": "▁fool",
  "10116": "▁promise",
  "10117": "▁Hall",
  "10118": "▁bought",
  "10119": "▁interests",
  "10120": "▁rim",
  "10121": "known",
  "10122": "▁solve",
  "10123": "▁bran",
  "10124": "ties",
  "10125": "illes",
  "10126": "▁fá",
  "10127": "▁chức",
  "10128": "▁distingu",
  "10129": "▁reduc",
  "10130": "▁propri",
  "10131": "جه",
  "10132": "▁rất",
  "10133": "▁Dans",
  "10134": "▁mm",
  "10135": "ễn",
  "10136": "chron",
  "10137": "▁leadership",
  "10138": "▁Hab",
  "10139": "ains",
  "10140": "ữa",
  "10141": "ór",
  "10142": "▁movie",
  "10143": "▁transition",
  "10144": "▁ξεκ",
  "10145": "▁dinner",
  "10146": "りが",
  "10147": "▁vengono",
  "10148": "ompl",
  "10149": "▁inten",
  "10150": "مر",
  "10151": "▁electr",
  "10152": "▁Dam",
  "10153": "▁gerne",
  "10154": "▁victim",
  "10155": "▁COVID",
  "10156": "▁χρηματο",
  "10157": "▁kit",
  "10158": "▁relevant",
  "10159": "▁circumstances",
  "10160": "▁toi",
  "10161": "▁dank",
  "10162": "▁empt",
  "10163": "know",
  "10164": "ständ",
  "10165": "▁보여",
  "10166": "ensa",
  "10167": "▁famous",
  "10168": "▁bá",
  "10169": "▁grav",
  "10170": "rable",
  "10171": "▁datab",
  "10172": "▁상태",
  "10173": "▁복",
  "10174": "áct",
  "10175": "▁해주",
  "10176": "▁taught",
  "10177": "지를",
  "10178": "igos",
  "10179": "▁somewhat",
  "10180": "可能",
  "10181": "▁bot",
  "10182": "▁mun",
  "10183": "eline",
  "10184": "ομισι",
  "10185": "▁Denn",
  "10186": "τημα",
  "10187": "▁essential",
  "10188": "▁corru",
  "10189": "▁fly",
  "10190": "▁implementation",
  "10191": "δότη",
  "10192": "▁confidence",
  "10193": "▁gio",
  "10194": "▁brown",
  "10195": "▁July",
  "10196": "▁dign",
  "10197": "▁bệnh",
  "10198": "▁học",
  "10199": "▁duas",
  "10200": "▁fuck",
  "10201": "▁sche",
  "10202": "▁언",
  "10203": "▁تح",
  "10204": "▁nen",
  "10205": "▁Cath",
  "10206": "▁typically",
  "10207": "θούμε",
  "10208": "▁εμεί",
  "10209": "▁algumas",
  "10210": "▁divided",
  "10211": "ント",
  "10212": "▁vogliamo",
  "10213": "▁location",
  "10214": "ME",
  "10215": "▁Enthalt",
  "10216": "▁σήμερα",
  "10217": "▁park",
  "10218": "▁一",
  "10219": "▁draft",
  "10220": "▁Een",
  "10221": "στημα",
  "10222": "▁Pues",
  "10223": "كر",
  "10224": "▁출",
  "10225": "▁cidad",
  "10226": "odo",
  "10227": "▁teacher",
  "10228": "레이",
  "10229": "▁Lin",
  "10230": "▁Van",
  "10231": "▁restrict",
  "10232": "▁Κοινοβούλιο",
  "10233": "▁houses",
  "10234": "iedy",
  "10235": "unde",
  "10236": "▁μπορούν",
  "10237": "eremo",
  "10238": "▁minutos",
  "10239": "▁ز",
  "10240": "しか",
  "10241": "▁failed",
  "10242": "ąd",
  "10243": "▁richt",
  "10244": "▁allem",
  "10245": "▁Επίση",
  "10246": "atura",
  "10247": "▁bef",
  "10248": "▁información",
  "10249": "▁Court",
  "10250": "κό",
  "10251": "▁auth",
  "10252": "▁συμβ",
  "10253": "aine",
  "10254": "▁Problem",
  "10255": "▁highlight",
  "10256": "iments",
  "10257": "▁Aí",
  "10258": "▁spoken",
  "10259": "▁Vide",
  "10260": "▁Since",
  "10261": "xit",
  "10262": "▁Peter",
  "10263": "λεί",
  "10264": "▁nhận",
  "10265": "▁valut",
  "10266": "▁ιδιαίτε",
  "10267": "▁According",
  "10268": "▁concerns",
  "10269": "prech",
  "10270": "ossa",
  "10271": "uche",
  "10272": "beits",
  "10273": "▁Person",
  "10274": "▁illeg",
  "10275": "▁reports",
  "10276": "▁definition",
  "10277": "izio",
  "10278": "▁blind",
  "10279": "▁rice",
  "10280": "▁Daar",
  "10281": "▁pross",
  "10282": "▁τελ",
  "10283": "▁ries",
  "10284": "▁éta",
  "10285": "▁διαδικασία",
  "10286": "▁Państwo",
  "10287": "▁usual",
  "10288": "▁deste",
  "10289": "phere",
  "10290": "▁supported",
  "10291": "orevoli",
  "10292": "rito",
  "10293": "▁myster",
  "10294": "▁가능",
  "10295": "▁compla",
  "10296": "▁τομέ",
  "10297": "▁funny",
  "10298": "▁Does",
  "10299": "▁tác",
  "10300": "▁nuevo",
  "10301": "▁순",
  "10302": "▁horiz",
  "10303": "etzen",
  "10304": "unes",
  "10305": "▁offered",
  "10306": "▁ine",
  "10307": "▁tag",
  "10308": "▁eing",
  "10309": "▁vidéo",
  "10310": "▁capit",
  "10311": "▁ness",
  "10312": "rukt",
  "10313": "▁Wat",
  "10314": "πτυξη",
  "10315": "▁sup",
  "10316": "▁uncle",
  "10317": "rice",
  "10318": "▁cao",
  "10319": "▁κρα",
  "10320": "▁거기",
  "10321": "▁male",
  "10322": "▁Sign",
  "10323": "▁pover",
  "10324": "▁propuesta",
  "10325": "▁Noi",
  "10326": "νία",
  "10327": "ędzy",
  "10328": "▁rispos",
  "10329": "▁noticed",
  "10330": "▁fields",
  "10331": "▁offici",
  "10332": "nten",
  "10333": "▁Jest",
  "10334": "▁heer",
  "10335": "▁Hi",
  "10336": "▁grass",
  "10337": "ómo",
  "10338": "ちゃん",
  "10339": "▁conten",
  "10340": "▁particul",
  "10341": "▁managed",
  "10342": "▁cuestión",
  "10343": "▁fiscal",
  "10344": "▁James",
  "10345": "▁creation",
  "10346": "▁zona",
  "10347": "自分",
  "10348": "▁Ty",
  "10349": "▁느낌",
  "10350": "▁Ora",
  "10351": "▁xã",
  "10352": "やっぱ",
  "10353": "▁pock",
  "10354": "▁καν",
  "10355": "▁chez",
  "10356": "imately",
  "10357": "▁exercise",
  "10358": "ionale",
  "10359": "▁encourag",
  "10360": "▁wanna",
  "10361": "▁między",
  "10362": "▁trá",
  "10363": "works",
  "10364": "▁빠",
  "10365": "▁Kr",
  "10366": "▁beim",
  "10367": "▁współpra",
  "10368": "acje",
  "10369": "▁breve",
  "10370": "▁있죠",
  "10371": "▁ü",
  "10372": "abile",
  "10373": "▁recognize",
  "10374": "τομ",
  "10375": "▁seek",
  "10376": "▁external",
  "10377": "ugi",
  "10378": "▁lung",
  "10379": "▁πρόταση",
  "10380": "rzeb",
  "10381": "inent",
  "10382": "▁versus",
  "10383": "▁businesses",
  "10384": "▁pris",
  "10385": "▁gentleman",
  "10386": "▁recursos",
  "10387": "▁vic",
  "10388": "▁Bur",
  "10389": "▁chủ",
  "10390": "▁predict",
  "10391": "ús",
  "10392": "ưở",
  "10393": "▁Greek",
  "10394": "▁répond",
  "10395": "▁William",
  "10396": "iek",
  "10397": "▁podem",
  "10398": "▁kingdom",
  "10399": "uded",
  "10400": "ーム",
  "10401": "▁führ",
  "10402": "▁وه",
  "10403": "▁Komisji",
  "10404": "ặc",
  "10405": "▁Auch",
  "10406": "fahren",
  "10407": "▁dabei",
  "10408": "▁mole",
  "10409": "▁πολλέ",
  "10410": "▁보니까",
  "10411": "ords",
  "10412": "▁这",
  "10413": "▁Πολ",
  "10414": "▁emphas",
  "10415": "CP",
  "10416": "▁αντιμετωπ",
  "10417": "不是",
  "10418": "▁ello",
  "10419": "▁plate",
  "10420": "▁persons",
  "10421": "▁êtes",
  "10422": "▁prince",
  "10423": "▁professor",
  "10424": "▁Σε",
  "10425": "▁queen",
  "10426": "▁ceux",
  "10427": "▁bảy",
  "10428": "▁gou",
  "10429": "▁neue",
  "10430": "▁advanced",
  "10431": "chien",
  "10432": "▁Präsident",
  "10433": "acters",
  "10434": "▁export",
  "10435": "vie",
  "10436": "▁hurt",
  "10437": "▁transm",
  "10438": "util",
  "10439": "▁tám",
  "10440": "▁bảo",
  "10441": "▁blow",
  "10442": "▁atmos",
  "10443": "▁perfectly",
  "10444": "▁larg",
  "10445": "▁Κομισι",
  "10446": "▁195",
  "10447": "▁σχε",
  "10448": "▁địa",
  "10449": "▁vacc",
  "10450": "laimed",
  "10451": "▁Holy",
  "10452": "▁tier",
  "10453": "▁χρόνια",
  "10454": "▁dével",
  "10455": "▁último",
  "10456": "▁landen",
  "10457": "ünd",
  "10458": "▁fashion",
  "10459": "▁pensar",
  "10460": "▁personne",
  "10461": "▁10.",
  "10462": "▁상황",
  "10463": "▁intellect",
  "10464": "▁tort",
  "10465": "▁víde",
  "10466": "▁اع",
  "10467": "들도",
  "10468": "▁illust",
  "10469": "▁visual",
  "10470": "▁awesome",
  "10471": "AS",
  "10472": "▁smile",
  "10473": "cep",
  "10474": "▁everywhere",
  "10475": "▁quali",
  "10476": "▁werde",
  "10477": "lique",
  "10478": "▁random",
  "10479": "▁whenever",
  "10480": "ffee",
  "10481": "iejs",
  "10482": "inos",
  "10483": "ưởng",
  "10484": "▁akt",
  "10485": "▁surprise",
  "10486": "ski",
  "10487": "▁outra",
  "10488": "▁gospod",
  "10489": "▁También",
  "10490": "ichte",
  "10491": "▁siano",
  "10492": "arr",
  "10493": "▁Produ",
  "10494": "σετε",
  "10495": "ほど",
  "10496": "▁meno",
  "10497": "▁shout",
  "10498": "▁sexual",
  "10499": "άζεται",
  "10500": "clock",
  "10501": "▁operations",
  "10502": "▁boa",
  "10503": "ailleurs",
  "10504": "▁curious",
  "10505": "▁sport",
  "10506": "ψει",
  "10507": "alo",
  "10508": "icians",
  "10509": "▁identify",
  "10510": "▁staat",
  "10511": "▁emerg",
  "10512": "ío",
  "10513": "▁Franc",
  "10514": "▁Voor",
  "10515": "▁attrib",
  "10516": "▁い",
  "10517": "osen",
  "10518": "elve",
  "10519": "crib",
  "10520": "▁보고",
  "10521": "asser",
  "10522": "▁Up",
  "10523": "ography",
  "10524": "▁자기",
  "10525": "aging",
  "10526": "▁disappe",
  "10527": "iverse",
  "10528": "▁τομέα",
  "10529": "できる",
  "10530": "rot",
  "10531": "▁tall",
  "10532": "▁accompl",
  "10533": "▁pourquoi",
  "10534": "▁tap",
  "10535": "▁gebe",
  "10536": "▁concer",
  "10537": "▁suas",
  "10538": "ieme",
  "10539": "▁werd",
  "10540": "ích",
  "10541": "▁ogni",
  "10542": "وف",
  "10543": "0,000",
  "10544": "▁leurs",
  "10545": "▁California",
  "10546": "▁Abs",
  "10547": "down",
  "10548": "▁drag",
  "10549": "▁device",
  "10550": "▁nämlich",
  "10551": "▁storm",
  "10552": "▁그것",
  "10553": "icy",
  "10554": "▁egg",
  "10555": "▁zaw",
  "10556": "▁feedback",
  "10557": "▁primo",
  "10558": "▁Ils",
  "10559": "▁내용",
  "10560": "▁eighteen",
  "10561": "▁gezegd",
  "10562": "▁Although",
  "10563": "▁determined",
  "10564": "▁actu",
  "10565": "▁absten",
  "10566": "▁Bu",
  "10567": "▁wspól",
  "10568": "▁συνά",
  "10569": "▁Form",
  "10570": "▁twice",
  "10571": "enew",
  "10572": "ila",
  "10573": "▁lem",
  "10574": "▁Ist",
  "10575": "▁fairly",
  "10576": "▁انت",
  "10577": "▁equilib",
  "10578": "encial",
  "10579": "▁banks",
  "10580": "zczegól",
  "10581": "▁pictures",
  "10582": "▁weer",
  "10583": "etti",
  "10584": "▁entra",
  "10585": "▁electron",
  "10586": "▁latter",
  "10587": "▁upper",
  "10588": "▁사이",
  "10589": "▁kole",
  "10590": "▁route",
  "10591": "▁fifty",
  "10592": "ozy",
  "10593": "▁providing",
  "10594": "μένων",
  "10595": "▁weet",
  "10596": "vait",
  "10597": "▁επικ",
  "10598": "▁votazione",
  "10599": "▁novel",
  "10600": "▁entrar",
  "10601": "ischer",
  "10602": "▁بت",
  "10603": "iras",
  "10604": "▁duid",
  "10605": "▁mart",
  "10606": "▁ignor",
  "10607": "▁border",
  "10608": "▁Portug",
  "10609": "ép",
  "10610": "▁ông",
  "10611": "▁competition",
  "10612": "صل",
  "10613": "の中",
  "10614": "ijk",
  "10615": "ificar",
  "10616": "▁presup",
  "10617": "▁rappresent",
  "10618": "▁먼저",
[...]
